{
  "version": "1.0",
  "truncation": null,
  "padding": null,
  "added_tokens": [
    {
      "id": 0,
      "content": "[UNK]",
      "single_word": false,
      "lstrip": false,
      "rstrip": false,
      "normalized": false,
      "special": true
    },
    {
      "id": 1,
      "content": "[CLS]",
      "single_word": false,
      "lstrip": false,
      "rstrip": false,
      "normalized": false,
      "special": true
    },
    {
      "id": 2,
      "content": "[SEP]",
      "single_word": false,
      "lstrip": false,
      "rstrip": false,
      "normalized": false,
      "special": true
    },
    {
      "id": 3,
      "content": "[PAD]",
      "single_word": false,
      "lstrip": false,
      "rstrip": false,
      "normalized": false,
      "special": true
    },
    {
      "id": 4,
      "content": "[MASK]",
      "single_word": false,
      "lstrip": false,
      "rstrip": false,
      "normalized": false,
      "special": true
    },
    {
      "id": 5,
      "content": "<|endoftext|>",
      "single_word": false,
      "lstrip": false,
      "rstrip": false,
      "normalized": false,
      "special": true
    }
  ],
  "normalizer": null,
  "pre_tokenizer": {
    "type": "Whitespace"
  },
  "post_processor": null,
  "decoder": null,
  "model": {
    "type": "BPE",
    "dropout": null,
    "unk_token": "[UNK]",
    "continuing_subword_prefix": null,
    "end_of_word_suffix": null,
    "fuse_unk": false,
    "byte_fallback": false,
    "ignore_merges": false,
    "vocab": {
      "[UNK]": 0,
      "[CLS]": 1,
      "[SEP]": 2,
      "[PAD]": 3,
      "[MASK]": 4,
      "<|endoftext|>": 5,
      "!": 6,
      "\"": 7,
      "#": 8,
      "$": 9,
      "%": 10,
      "&": 11,
      "'": 12,
      "(": 13,
      ")": 14,
      "*": 15,
      "+": 16,
      ",": 17,
      "-": 18,
      ".": 19,
      "/": 20,
      "0": 21,
      "1": 22,
      "2": 23,
      "3": 24,
      "4": 25,
      "5": 26,
      "6": 27,
      "7": 28,
      "8": 29,
      "9": 30,
      ":": 31,
      ";": 32,
      "?": 33,
      "@": 34,
      "A": 35,
      "B": 36,
      "C": 37,
      "D": 38,
      "E": 39,
      "F": 40,
      "G": 41,
      "H": 42,
      "I": 43,
      "J": 44,
      "K": 45,
      "L": 46,
      "M": 47,
      "N": 48,
      "O": 49,
      "P": 50,
      "Q": 51,
      "R": 52,
      "S": 53,
      "T": 54,
      "U": 55,
      "V": 56,
      "W": 57,
      "X": 58,
      "Y": 59,
      "Z": 60,
      "[": 61,
      "]": 62,
      "_": 63,
      "`": 64,
      "a": 65,
      "b": 66,
      "c": 67,
      "d": 68,
      "e": 69,
      "f": 70,
      "g": 71,
      "h": 72,
      "i": 73,
      "j": 74,
      "k": 75,
      "l": 76,
      "m": 77,
      "n": 78,
      "o": 79,
      "p": 80,
      "q": 81,
      "r": 82,
      "s": 83,
      "t": 84,
      "u": 85,
      "v": 86,
      "w": 87,
      "x": 88,
      "y": 89,
      "z": 90,
      "}": 91,
      "½": 92,
      "Ë": 93,
      "Ó": 94,
      "ß": 95,
      "à": 96,
      "á": 97,
      "â": 98,
      "ä": 99,
      "ç": 100,
      "è": 101,
      "é": 102,
      "ê": 103,
      "ë": 104,
      "ó": 105,
      "ö": 106,
      "ù": 107,
      "ü": 108,
      "Ą": 109,
      "ą": 110,
      "Ć": 111,
      "ć": 112,
      "Ę": 113,
      "ę": 114,
      "Ł": 115,
      "ł": 116,
      "Ń": 117,
      "ń": 118,
      "Ś": 119,
      "ś": 120,
      "Š": 121,
      "Ź": 122,
      "ź": 123,
      "Ż": 124,
      "ż": 125,
      "́": 126,
      "̇": 127,
      "̨": 128,
      "Т": 129,
      "а": 130,
      "в": 131,
      "д": 132,
      "е": 133,
      "з": 134,
      "и": 135,
      "к": 136,
      "л": 137,
      "м": 138,
      "н": 139,
      "о": 140,
      "р": 141,
      "т": 142,
      "у": 143,
      "ч": 144,
      "ы": 145,
      "ь": 146,
      "‎": 147,
      "–": 148,
      "—": 149,
      "’": 150,
      "“": 151,
      "”": 152,
      "„": 153,
      "…": 154,
      "‪": 155,
      "‬": 156,
      "😟": 157,
      "🤍": 158,
      "ie": 159,
      "sz": 160,
      "st": 161,
      "na": 162,
      "nie": 163,
      "to": 164,
      "je": 165,
      "ch": 166,
      "ra": 167,
      "ak": 168,
      "am": 169,
      "dz": 170,
      "cz": 171,
      "ię": 172,
      "rz": 173,
      "po": 174,
      "le": 175,
      "te": 176,
      "ty": 177,
      "ro": 178,
      "ni": 179,
      "wa": 180,
      "ko": 181,
      "em": 182,
      "do": 183,
      "jest": 184,
      "la": 185,
      "ka": 186,
      "wi": 187,
      "ma": 188,
      "li": 189,
      "się": 190,
      "mi": 191,
      "wie": 192,
      "dzie": 193,
      "da": 194,
      "rze": 195,
      "ja": 196,
      "za": 197,
      "pa": 198,
      "ci": 199,
      "ki": 200,
      "ta": 201,
      "no": 202,
      "by": 203,
      "co": 204,
      "wy": 205,
      "ło": 206,
      "jak": 207,
      "bi": 208,
      "tu": 209,
      "mo": 210,
      "ku": 211,
      "ła": 212,
      "tak": 213,
      "ba": 214,
      "że": 215,
      "dzi": 216,
      "cie": 217,
      "my": 218,
      "go": 219,
      "ny": 220,
      "dy": 221,
      "ne": 222,
      "ce": 223,
      "de": 224,
      "ry": 225,
      "czy": 226,
      "ał": 227,
      "re": 228,
      "wo": 229,
      "pie": 230,
      "To": 231,
      "mnie": 232,
      "rzy": 233,
      "lo": 234,
      "ów": 235,
      "sta": 236,
      "prze": 237,
      "mam": 238,
      "mie": 239,
      "io": 240,
      "bo": 241,
      "szy": 242,
      "aj": 243,
      "lu": 244,
      "bie": 245,
      "Nie": 246,
      "pi": 247,
      "er": 248,
      "Po": 249,
      "ej": 250,
      "si": 251,
      "kie": 252,
      "ły": 253,
      "Je": 254,
      "ru": 255,
      "en": 256,
      "raz": 257,
      "ga": 258,
      "mu": 259,
      "cho": 260,
      "dę": 261,
      "tym": 262,
      "ży": 263,
      "ten": 264,
      "eś": 265,
      "rap": 266,
      "pra": 267,
      "ną": 268,
      "uj": 269,
      "as": 270,
      "łem": 271,
      "od": 272,
      "we": 273,
      "Ty": 274,
      "ho": 275,
      "cze": 276,
      "Ja": 277,
      "pier": 278,
      "sy": 279,
      "Te": 280,
      "kur": 281,
      "uż": 282,
      "gra": 283,
      "zio": 284,
      "bę": 285,
      "sze": 286,
      "in": 287,
      "so": 288,
      "łu": 289,
      "wia": 290,
      "ją": 291,
      "ar": 292,
      "..": 293,
      "mó": 294,
      "rę": 295,
      "robi": 296,
      "ca": 297,
      "ść": 298,
      "ze": 299,
      "Na": 300,
      "im": 301,
      "tam": 302,
      "ziom": 303,
      "pe": 304,
      "an": 305,
      "be": 306,
      "sie": 307,
      "sam": 308,
      "już": 309,
      "ich": 310,
      "wszy": 311,
      "pro": 312,
      "są": 313,
      "or": 314,
      "lko": 315,
      "su": 316,
      "zna": 317,
      "ró": 318,
      "se": 319,
      "sty": 320,
      "Wie": 321,
      "przy": 322,
      "czas": 323,
      "bię": 324,
      "cy": 325,
      "dla": 326,
      "praw": 327,
      "kt": 328,
      "oł": 329,
      "du": 330,
      "Jest": 331,
      "tego": 332,
      "nas": 333,
      "lej": 334,
      "bra": 335,
      "nia": 336,
      "roz": 337,
      "bu": 338,
      "sk": 339,
      "on": 340,
      "masz": 341,
      "cha": 342,
      "sto": 343,
      "Jak": 344,
      "kto": 345,
      "zy": 346,
      "wiesz": 347,
      "cę": 348,
      "gi": 349,
      "ję": 350,
      "dziś": 351,
      "Ch": 352,
      "sa": 353,
      "wiem": 354,
      "sza": 355,
      "ek": 356,
      "pod": 357,
      "dź": 358,
      "Tak": 359,
      "Za": 360,
      "wszyst": 361,
      "jesz": 362,
      "tylko": 363,
      "Co": 364,
      "Mo": 365,
      "hi": 366,
      "fi": 367,
      "tem": 368,
      "trz": 369,
      "być": 370,
      "pu": 371,
      "będzie": 372,
      "tra": 373,
      "wó": 374,
      "Tede": 375,
      "kurwa": 376,
      "ści": 377,
      "jestem": 378,
      "ha": 379,
      "me": 380,
      "ur": 381,
      "py": 382,
      "Ej": 383,
      "Bo": 384,
      "wię": 385,
      "mówi": 386,
      "tych": 387,
      "amy": 388,
      "nic": 389,
      "pły": 390,
      "Do": 391,
      "czę": 392,
      "haj": 393,
      "cię": 394,
      "lę": 395,
      "jesteś": 396,
      "dą": 397,
      "oo": 398,
      "Ma": 399,
      "ały": 400,
      "Dz": 401,
      "szę": 402,
      "teraz": 403,
      "sko": 404,
      "taj": 405,
      "ia": 406,
      "wu": 407,
      "No": 408,
      "cą": 409,
      "pię": 410,
      "każ": 411,
      "wał": 412,
      "ng": 413,
      "gdzie": 414,
      "nę": 415,
      "ałem": 416,
      "pierdo": 417,
      "ski": 418,
      "tą": 419,
      "coś": 420,
      "...": 421,
      "świa": 422,
      "al": 423,
      "ale": 424,
      "Ro": 425,
      "robię": 426,
      "trze": 427,
      "lan": 428,
      "mor": 429,
      "dob": 430,
      "czu": 431,
      "mną": 432,
      "dzę": 433,
      "den": 434,
      "sobie": 435,
      "śnie": 436,
      "hajs": 437,
      "nij": 438,
      "ska": 439,
      "kę": 440,
      "ście": 441,
      "może": 442,
      "Mam": 443,
      "zo": 444,
      "spo": 445,
      "wać": 446,
      "jed": 447,
      "jeba": 448,
      "!)": 449,
      "wła": 450,
      "zam": 451,
      "tro": 452,
      "war": 453,
      "zd": 454,
      "wam": 455,
      "patrz": 456,
      "myś": 457,
      "Wy": 458,
      "ąd": 459,
      "low": 460,
      "Pa": 461,
      "cią": 462,
      "uję": 463,
      "wszystko": 464,
      "wsze": 465,
      "kon": 466,
      "chodzi": 467,
      "fe": 468,
      "mieć": 469,
      "Ni": 470,
      "mia": 471,
      "nowu": 472,
      "Ra": 473,
      "chce": 474,
      "rt": 475,
      "Ta": 476,
      "nam": 477,
      "bą": 478,
      "cia": 479,
      "hip": 480,
      "two": 481,
      "chcę": 482,
      "kiedy": 483,
      "ee": 484,
      "Ko": 485,
      "tę": 486,
      "życie": 487,
      "pierda": 488,
      "jeszcze": 489,
      "Prze": 490,
      "nów": 491,
      "ri": 492,
      "Mó": 493,
      "nu": 494,
      "pre": 495,
      "trzy": 496,
      "naj": 497,
      "stu": 498,
      "ji": 499,
      "było": 500,
      "kła": 501,
      "Joł": 502,
      "dzień": 503,
      "ck": 504,
      "dam": 505,
      "gę": 506,
      "mamy": 507,
      "gło": 508,
      "słu": 509,
      "każdy": 510,
      "mów": 511,
      "Jestem": 512,
      "któ": 513,
      "gry": 514,
      "nych": 515,
      "nich": 516,
      "di": 517,
      "cza": 518,
      "cu": 519,
      "świat": 520,
      "gdy": 521,
      "Kie": 522,
      "lat": 523,
      "wój": 524,
      "fo": 525,
      "Pol": 526,
      "Ale": 527,
      "Że": 528,
      "lam": 529,
      "moje": 530,
      "cja": 531,
      "hop": 532,
      "Wszy": 533,
      "musi": 534,
      "pow": 535,
      "bar": 536,
      "lą": 537,
      "Ka": 538,
      "ciebie": 539,
      "mój": 540,
      "tej": 541,
      "Cz": 542,
      "dzą": 543,
      "tutaj": 544,
      "Kiedy": 545,
      "prz": 546,
      "ża": 547,
      "styl": 548,
      "gar": 549,
      "lem": 550,
      "nym": 551,
      "znowu": 552,
      "amię": 553,
      "Dzi": 554,
      "krę": 555,
      "sły": 556,
      "kro": 557,
      "Mi": 558,
      "swo": 559,
      "sen": 560,
      "łeś": 561,
      "dzieć": 562,
      "dalej": 563,
      "pę": 564,
      "żeby": 565,
      "aa": 566,
      "powie": 567,
      "Tu": 568,
      "lkie": 569,
      "kim": 570,
      "mat": 571,
      "was": 572,
      "rac": 573,
      "właśnie": 574,
      "Od": 575,
      "dnie": 576,
      "up": 577,
      "nim": 578,
      "też": 579,
      "chuj": 580,
      "przez": 581,
      "będę": 582,
      "ob": 583,
      "dać": 584,
      "bez": 585,
      "Mówi": 586,
      "tr": 587,
      "sem": 588,
      "ter": 589,
      "flow": 590,
      "ser": 591,
      "czą": 592,
      "kiem": 593,
      "sło": 594,
      "chy": 595,
      "jeden": 596,
      "przed": 597,
      "miej": 598,
      "pierdala": 599,
      "chło": 600,
      "kam": 601,
      "joł": 602,
      "wno": 603,
      "niej": 604,
      "kawał": 605,
      "cały": 606,
      "ką": 607,
      "pak": 608,
      "um": 609,
      "zmie": 610,
      "koń": 611,
      "tedy": 612,
      "WJ": 613,
      "cham": 614,
      "kole": 615,
      "fa": 616,
      "sce": 617,
      "By": 618,
      "pó": 619,
      "Kto": 620,
      "umie": 621,
      "man": 622,
      "stę": 623,
      "taki": 624,
      "nikt": 625,
      "faj": 626,
      "ir": 627,
      "zrobi": 628,
      "jej": 629,
      "był": 630,
      "łowie": 631,
      "dobrze": 632,
      "Wi": 633,
      "waż": 634,
      "wą": 635,
      "jadę": 636,
      "weź": 637,
      "gó": 638,
      "łą": 639,
      "tek": 640,
      "bym": 641,
      "rą": 642,
      "znów": 643,
      "kach": 644,
      "Może": 645,
      "lnie": 646,
      "wet": 647,
      "fu": 648,
      "bit": 649,
      "Cza": 650,
      "scy": 651,
      "pad": 652,
      "takie": 653,
      "cej": 654,
      "Lu": 655,
      "gie": 656,
      "Ży": 657,
      "ste": 658,
      "NWJ": 659,
      "men": 660,
      "peł": 661,
      "chaj": 662,
      "Wielkie": 663,
      "miał": 664,
      "daj": 665,
      "Wszyst": 666,
      "ach": 667,
      "oni": 668,
      "szcze": 669,
      "nt": 670,
      "pla": 671,
      "Dla": 672,
      "Kur": 673,
      "zda": 674,
      "tach": 675,
      "Ten": 676,
      "ol": 677,
      "samo": 678,
      "łe": 679,
      "gle": 680,
      "śli": 681,
      "chcą": 682,
      "żyć": 683,
      "gru": 684,
      "nią": 685,
      "dem": 686,
      "nię": 687,
      "zawsze": 688,
      "szło": 689,
      "ziomek": 690,
      "gu": 691,
      "tyle": 692,
      "par": 693,
      "dzisz": 694,
      "cież": 695,
      "Ci": 696,
      "cji": 697,
      "szam": 698,
      "chę": 699,
      "WA": 700,
      "au": 701,
      "sią": 702,
      "prawdę": 703,
      "wczy": 704,
      "aka": 705,
      "Jesteś": 706,
      "Cho": 707,
      "dru": 708,
      "mordo": 709,
      "człowie": 710,
      "dziemy": 711,
      "zamk": 712,
      "Rap": 713,
      "Pie": 714,
      "śmy": 715,
      "chwi": 716,
      "mają": 717,
      "prez": 718,
      "pan": 719,
      "Masz": 720,
      "Dziś": 721,
      "ju": 722,
      "sku": 723,
      "lubi": 724,
      "Wiesz": 725,
      "My": 726,
      "PL": 727,
      "fon": 728,
      "ok": 729,
      "gram": 730,
      "mówią": 731,
      "wtedy": 732,
      "WWA": 733,
      "op": 734,
      "PLN": 735,
      "Le": 736,
      "dro": 737,
      "ludzi": 738,
      "stęp": 739,
      "TD": 740,
      "ss": 741,
      "siebie": 742,
      "cem": 743,
      "ram": 744,
      "lep": 745,
      "for": 746,
      "ciu": 747,
      "War": 748,
      "ll": 749,
      "spraw": 750,
      "żd": 751,
      "dze": 752,
      "nik": 753,
      "kolej": 754,
      "muzy": 755,
      "ony": 756,
      "pamię": 757,
      "jeb": 758,
      "pięk": 759,
      "ve": 760,
      "dzwo": 761,
      "możesz": 762,
      "mp": 763,
      "mer": 764,
      "bacz": 765,
      "ludzie": 766,
      "TDF": 767,
      "Be": 768,
      "potem": 769,
      "moja": 770,
      "kre": 771,
      "więcej": 772,
      "Wszystko": 773,
      "Wię": 774,
      "dziewczy": 775,
      "stra": 776,
      "Czy": 777,
      "nowy": 778,
      "siaj": 779,
      "jeżd": 780,
      "ran": 781,
      "wal": 782,
      "ban": 783,
      "star": 784,
      "rób": 785,
      "Sz": 786,
      "he": 787,
      "kla": 788,
      "raj": 789,
      "dzo": 790,
      "moc": 791,
      "Mówią": 792,
      "ków": 793,
      "szcz": 794,
      "nawet": 795,
      "wiel": 796,
      "ałe": 797,
      "nąć": 798,
      "Mich": 799,
      "sł": 800,
      "ami": 801,
      "lata": 802,
      "liśmy": 803,
      "mogę": 804,
      "musisz": 805,
      "chłopak": 806,
      "Warsza": 807,
      "jedna": 808,
      "Każ": 809,
      "gł": 810,
      "is": 811,
      "pła": 812,
      "zdro": 813,
      "chcesz": 814,
      "Przy": 815,
      "ge": 816,
      "ona": 817,
      "raca": 818,
      "nej": 819,
      "Kurwa": 820,
      "szą": 821,
      "mówię": 822,
      "kaz": 823,
      "pal": 824,
      "sia": 825,
      "kurwy": 826,
      "Wiem": 827,
      "kró": 828,
      "ou": 829,
      "tru": 830,
      "We": 831,
      "rem": 832,
      "bom": 833,
      "Nic": 834,
      "dł": 835,
      "wro": 836,
      "nio": 837,
      "czym": 838,
      "ans": 839,
      "twój": 840,
      "ują": 841,
      "zosta": 842,
      "Me": 843,
      "niu": 844,
      "mili": 845,
      "który": 846,
      "nad": 847,
      "nagry": 848,
      "emy": 849,
      "chać": 850,
      "Bę": 851,
      "Mu": 852,
      "ół": 853,
      "rzę": 854,
      "robić": 855,
      "ktoś": 856,
      "cje": 857,
      "wró": 858,
      "waj": 859,
      "dał": 860,
      "więc": 861,
      "chu": 862,
      "tań": 863,
      "Teraz": 864,
      "trzeba": 865,
      "Ry": 866,
      "it": 867,
      "szu": 868,
      "laj": 869,
      "byś": 870,
      "prob": 871,
      "gdzieś": 872,
      "jebane": 873,
      "?)": 874,
      "dno": 875,
      "zi": 876,
      "nić": 877,
      "idzie": 878,
      "pią": 879,
      "sumie": 880,
      "liczy": 881,
      "dej": 882,
      "piej": 883,
      "będą": 884,
      "Pier": 885,
      "dwa": 886,
      "świe": 887,
      "moż": 888,
      "wol": 889,
      "tka": 890,
      "widzę": 891,
      "pała": 892,
      "mog": 893,
      "Ona": 894,
      "tki": 895,
      "czeka": 896,
      "gh": 897,
      "jam": 898,
      "ke": 899,
      "tobie": 900,
      "rzu": 901,
      "bardzo": 902,
      "umiesz": 903,
      "klu": 904,
      "wali": 905,
      "dział": 906,
      "choć": 907,
      "konce": 908,
      "Gdzie": 909,
      "Sam": 910,
      "wiedzieć": 911,
      "dio": 912,
      "wę": 913,
      "wbi": 914,
      "naprawdę": 915,
      "tor": 916,
      "wiam": 917,
      "mikro": 918,
      "bang": 919,
      "wow": 920,
      "razem": 921,
      "swoje": 922,
      "Hi": 923,
      "rr": 924,
      "nigdy": 925,
      "Robię": 926,
      "Mor": 927,
      "ciąż": 928,
      "Gu": 929,
      "jaki": 930,
      "Już": 931,
      "Re": 932,
      "dia": 933,
      "tów": 934,
      "chci": 935,
      "czuję": 936,
      "miło": 937,
      "imprez": 938,
      "Cię": 939,
      "Da": 940,
      "bla": 941,
      "ns": 942,
      "wer": 943,
      "znam": 944,
      "Życie": 945,
      "De": 946,
      "zie": 947,
      "nasz": 948,
      "pięć": 949,
      "miasto": 950,
      "Mie": 951,
      "bli": 952,
      "In": 953,
      "czej": 954,
      "lepiej": 955,
      "płynie": 956,
      "pierdol": 957,
      "Ha": 958,
      "spa": 959,
      "dziej": 960,
      "pierw": 961,
      "znasz": 962,
      "Moje": 963,
      "miejs": 964,
      "zamknij": 965,
      "sła": 966,
      "vi": 967,
      "nami": 968,
      "kich": 969,
      "dzić": 970,
      "der": 971,
      "człowieku": 972,
      "usta": 973,
      "Tylko": 974,
      "?!": 975,
      "kli": 976,
      "prawda": 977,
      "jedno": 978,
      "głu": 979,
      "Patrz": 980,
      "kawałek": 981,
      "iść": 982,
      "ot": 983,
      "szma": 984,
      "szczy": 985,
      "stać": 986,
      "Chce": 987,
      "tny": 988,
      "wciąż": 989,
      "nagra": 990,
      "mniej": 991,
      "pierdoli": 992,
      "kiedyś": 993,
      "kładnie": 994,
      "Więc": 995,
      "Każdy": 996,
      "kurwysy": 997,
      "Weź": 998,
      "Cie": 999,
      "Pi": 1000,
      "Sie": 1001,
      "dłu": 1002,
      "fur": 1003,
      "hej": 1004,
      "dzy": 1005,
      "daje": 1006,
      "noc": 1007,
      "dziw": 1008,
      "ają": 1009,
      "uu": 1010,
      "zę": 1011,
      "szczę": 1012,
      "at": 1013,
      "ks": 1014,
      "trap": 1015,
      "łę": 1016,
      "żę": 1017,
      "nar": 1018,
      "nawi": 1019,
      "rzeczy": 1020,
      "muszę": 1021,
      "łułu": 1022,
      "Dzie": 1023,
      "Cały": 1024,
      "Sta": 1025,
      "fak": 1026,
      "gwia": 1027,
      "mię": 1028,
      "mło": 1029,
      "ód": 1030,
      "tobą": 1031,
      "jebi": 1032,
      "temat": 1033,
      "parę": 1034,
      "gad": 1035,
      "wszyscy": 1036,
      "Roz": 1037,
      "per": 1038,
      "śro": 1039,
      "byłem": 1040,
      "słuchaj": 1041,
      "Wła": 1042,
      "bej": 1043,
      "tnie": 1044,
      "wej": 1045,
      "zwy": 1046,
      "przej": 1047,
      "chodzę": 1048,
      "czego": 1049,
      "ciągle": 1050,
      "chyba": 1051,
      "ile": 1052,
      "ti": 1053,
      "ster": 1054,
      "toczę": 1055,
      "cznie": 1056,
      "pol": 1057,
      "lone": 1058,
      "piz": 1059,
      "razy": 1060,
      "Żeby": 1061,
      "Two": 1062,
      "stwo": 1063,
      "przecież": 1064,
      "nął": 1065,
      "myśli": 1066,
      "racam": 1067,
      "óż": 1068,
      "stor": 1069,
      "ree": 1070,
      "lot": 1071,
      "pis": 1072,
      "brać": 1073,
      "stop": 1074,
      "dna": 1075,
      "pli": 1076,
      "zło": 1077,
      "nach": 1078,
      "dza": 1079,
      "tele": 1080,
      "rok": 1081,
      "miałem": 1082,
      "pada": 1083,
      "pew": 1084,
      "Pierdo": 1085,
      "lli": 1086,
      "zja": 1087,
      "ór": 1088,
      "dawno": 1089,
      "cel": 1090,
      "Hip": 1091,
      "Su": 1092,
      "gów": 1093,
      "mę": 1094,
      "wałem": 1095,
      "how": 1096,
      "yy": 1097,
      "zak": 1098,
      "dar": 1099,
      "dzisiaj": 1100,
      "res": 1101,
      "Gi": 1102,
      "Sir": 1103,
      "grze": 1104,
      "stro": 1105,
      "ważne": 1106,
      "Pamię": 1107,
      "ali": 1108,
      "skie": 1109,
      "licz": 1110,
      "Jeszcze": 1111,
      "fil": 1112,
      "które": 1113,
      "fajnie": 1114,
      "jednak": 1115,
      "dra": 1116,
      "fej": 1117,
      "glą": 1118,
      "mak": 1119,
      "kogo": 1120,
      "bać": 1121,
      "nek": 1122,
      "trzyma": 1123,
      "RR": 1124,
      "pio": 1125,
      "Choć": 1126,
      "Ku": 1127,
      "stwa": 1128,
      "ner": 1129,
      "lony": 1130,
      "pewno": 1131,
      "melan": 1132,
      "pierdalaj": 1133,
      "La": 1134,
      "MC": 1135,
      "Pro": 1136,
      "ani": 1137,
      "dło": 1138,
      "zwro": 1139,
      "śmie": 1140,
      "muś": 1141,
      "będziesz": 1142,
      "oooo": 1143,
      "jo": 1144,
      "sprze": 1145,
      "dzieci": 1146,
      "takich": 1147,
      "bardziej": 1148,
      "wz": 1149,
      "szans": 1150,
      "następ": 1151,
      "niec": 1152,
      "raczej": 1153,
      "pom": 1154,
      "sami": 1155,
      "fele": 1156,
      "kolejny": 1157,
      "oczy": 1158,
      "sę": 1159,
      "jeź": 1160,
      "dzię": 1161,
      "kar": 1162,
      "mar": 1163,
      "jaj": 1164,
      "moich": 1165,
      "taka": 1166,
      "dzia": 1167,
      "resz": 1168,
      "Polska": 1169,
      "starczy": 1170,
      "środ": 1171,
      "Haj": 1172,
      "bro": 1173,
      "blo": 1174,
      "dni": 1175,
      "kaj": 1176,
      "wyj": 1177,
      "mone": 1178,
      "łap": 1179,
      "życia": 1180,
      "rapu": 1181,
      "zmieni": 1182,
      "problem": 1183,
      "cję": 1184,
      "gim": 1185,
      "cić": 1186,
      "robią": 1187,
      "mówić": 1188,
      "mikrofon": 1189,
      "chciał": 1190,
      "Chcesz": 1191,
      "Zio": 1192,
      "obo": 1193,
      "strz": 1194,
      "nana": 1195,
      "jedzie": 1196,
      "jeee": 1197,
      "mina": 1198,
      "mieście": 1199,
      "szedł": 1200,
      "czasem": 1201,
      "wszystkie": 1202,
      "trafi": 1203,
      "skoń": 1204,
      "kręć": 1205,
      "furą": 1206,
      "Bu": 1207,
      "om": 1208,
      "mija": 1209,
      "jas": 1210,
      "kump": 1211,
      "pieprz": 1212,
      "bon": 1213,
      "Pod": 1214,
      "Robi": 1215,
      "PLNY": 1216,
      "00": 1217,
      "cał": 1218,
      "ogar": 1219,
      "pą": 1220,
      "sp": 1221,
      "swój": 1222,
      "zu": 1223,
      "zer": 1224,
      "szej": 1225,
      "niż": 1226,
      "wić": 1227,
      "maj": 1228,
      "wiele": 1229,
      "rek": 1230,
      "ren": 1231,
      "boli": 1232,
      "wiat": 1233,
      "ciaż": 1234,
      "Czasem": 1235,
      "Mamy": 1236,
      "Pra": 1237,
      "Są": 1238,
      "kąd": 1239,
      "spra": 1240,
      "rach": 1241,
      "dor": 1242,
      "czuć": 1243,
      "Gra": 1244,
      "duż": 1245,
      "lie": 1246,
      "ver": 1247,
      "niesz": 1248,
      "kom": 1249,
      "mało": 1250,
      "wszystkich": 1251,
      "Wszyscy": 1252,
      "Trzy": 1253,
      "Znowu": 1254,
      "ben": 1255,
      "ix": 1256,
      "stąd": 1257,
      "leci": 1258,
      "zaja": 1259,
      "momen": 1260,
      "czyć": 1261,
      "bum": 1262,
      "pyta": 1263,
      "twoje": 1264,
      "),": 1265,
      "Air": 1266,
      "Bi": 1267,
      "dne": 1268,
      "kce": 1269,
      "un": 1270,
      "wraca": 1271,
      "łak": 1272,
      "ton": 1273,
      "kil": 1274,
      "tan": 1275,
      "działem": 1276,
      "praszam": 1277,
      "Tyle": 1278,
      "sobą": 1279,
      "cała": 1280,
      "zero": 1281,
      "jesteśmy": 1282,
      "Czas": 1283,
      "cka": 1284,
      "cci": 1285,
      "dłem": 1286,
      "Świat": 1287,
      "nale": 1288,
      "zaczy": 1289,
      "była": 1290,
      "Potem": 1291,
      "grać": 1292,
      "ing": 1293,
      "same": 1294,
      "histor": 1295,
      "ciąg": 1296,
      "Przecież": 1297,
      "głowie": 1298,
      "Możesz": 1299,
      "auto": 1300,
      "Fi": 1301,
      "Trze": 1302,
      "one": 1303,
      "osta": 1304,
      "tne": 1305,
      "wki": 1306,
      "mini": 1307,
      "pali": 1308,
      "tal": 1309,
      "żej": 1310,
      "przekaz": 1311,
      "prostu": 1312,
      "znaj": 1313,
      "rozumiesz": 1314,
      "więk": 1315,
      "można": 1316,
      "Ciebie": 1317,
      "melanż": 1318,
      "bry": 1319,
      "nem": 1320,
      "lecą": 1321,
      "dobra": 1322,
      "ścia": 1323,
      "szędzie": 1324,
      "pierdalam": 1325,
      "słucha": 1326,
      "lubią": 1327,
      "dużo": 1328,
      "Dwa": 1329,
      "ogó": 1330,
      "skurwysy": 1331,
      "strze": 1332,
      "leć": 1333,
      "wierzy": 1334,
      "lans": 1335,
      "sprawdź": 1336,
      "muzyka": 1337,
      "dzwoń": 1338,
      "Pe": 1339,
      "nka": 1340,
      "śpie": 1341,
      "nisko": 1342,
      "wiedzą": 1343,
      "non": 1344,
      "wyszło": 1345,
      "bity": 1346,
      "bee": 1347,
      "prawdzi": 1348,
      "Kolej": 1349,
      "Bez": 1350,
      "Gucci": 1351,
      "?\"": 1352,
      "kno": 1353,
      "ój": 1354,
      "widzisz": 1355,
      "wierz": 1356,
      "patrzy": 1357,
      "wych": 1358,
      "Jadę": 1359,
      "sukce": 1360,
      "Chcę": 1361,
      "Nikt": 1362,
      "drugi": 1363,
      "Mordo": 1364,
      "Cze": 1365,
      "idę": 1366,
      "kra": 1367,
      "orę": 1368,
      "uli": 1369,
      "x2": 1370,
      "łek": 1371,
      "stem": 1372,
      "jemy": 1373,
      "dan": 1374,
      "czył": 1375,
      "dupy": 1376,
      "dobre": 1377,
      "jebać": 1378,
      "patrzę": 1379,
      "Czu": 1380,
      "party": 1381,
      "jeżdż": 1382,
      "Dis": 1383,
      "Esen": 1384,
      "Gdy": 1385,
      "Sto": 1386,
      "cki": 1387,
      "pał": 1388,
      "biorę": 1389,
      "Jedziemy": 1390,
      "pierwszy": 1391,
      "robisz": 1392,
      "robimy": 1393,
      "rót": 1394,
      "skąd": 1395,
      "trochę": 1396,
      "słowa": 1397,
      "BM": 1398,
      "ble": 1399,
      "tłu": 1400,
      "powiem": 1401,
      "tery": 1402,
      "widzieć": 1403,
      "stary": 1404,
      "dobry": 1405,
      "Li": 1406,
      "eki": 1407,
      "osie": 1408,
      "rów": 1409,
      "yo": 1410,
      "łaka": 1411,
      "rabi": 1412,
      "czny": 1413,
      "kor": 1414,
      "domo": 1415,
      "jako": 1416,
      "tur": 1417,
      "czysz": 1418,
      "mama": 1419,
      "myśl": 1420,
      "DJ": 1421,
      "Jor": 1422,
      "Mer": 1423,
      "drz": 1424,
      "plu": 1425,
      "smak": 1426,
      "łam": 1427,
      "wią": 1428,
      "nor": 1429,
      "moim": 1430,
      "ryj": 1431,
      "ałeś": 1432,
      "Jeden": 1433,
      "życiu": 1434,
      "myślę": 1435,
      "zrobić": 1436,
      "gląda": 1437,
      "Naj": 1438,
      "ps": 1439,
      "smu": 1440,
      "widać": 1441,
      "mart": 1442,
      "jara": 1443,
      "ność": 1444,
      "szych": 1445,
      "płyta": 1446,
      "świata": 1447,
      "Myś": 1448,
      "milion": 1449,
      "koncer": 1450,
      "Ba": 1451,
      "Ile": 1452,
      "Ze": 1453,
      "flo": 1454,
      "tni": 1455,
      "sztu": 1456,
      "czki": 1457,
      "dzieje": 1458,
      "tar": 1459,
      "nowe": 1460,
      "wyjebane": 1461,
      "goni": 1462,
      "lub": 1463,
      "pisz": 1464,
      "sor": 1465,
      "miało": 1466,
      "każdym": 1467,
      "kawałki": 1468,
      "Musi": 1469,
      "beef": 1470,
      "kry": 1471,
      "sh": 1472,
      "yba": 1473,
      "nał": 1474,
      "cześ": 1475,
      "dom": 1476,
      "łaś": 1477,
      "style": 1478,
      "but": 1479,
      "Dobra": 1480,
      "fol": 1481,
      "pój": 1482,
      "chwilę": 1483,
      "bejbi": 1484,
      "Zam": 1485,
      "gro": 1486,
      "krzy": 1487,
      "rin": 1488,
      "lecz": 1489,
      "nii": 1490,
      "wan": 1491,
      "dość": 1492,
      "win": 1493,
      "biera": 1494,
      "hoo": 1495,
      "ręce": 1496,
      "podnie": 1497,
      "czujesz": 1498,
      "Polski": 1499,
      "jakiś": 1500,
      "Ca": 1501,
      "ii": 1502,
      "vol": 1503,
      "ws": 1504,
      "naz": 1505,
      "rapie": 1506,
      "czku": 1507,
      "mix": 1508,
      "jakby": 1509,
      "des": 1510,
      "look": 1511,
      "lubię": 1512,
      "Jeśli": 1513,
      "cach": 1514,
      "siedem": 1515,
      "dup": 1516,
      "wóch": 1517,
      "Nowy": 1518,
      "Pała": 1519,
      "bądź": 1520,
      "kład": 1521,
      "trwa": 1522,
      "Michu": 1523,
      "pierwszej": 1524,
      "długo": 1525,
      "Właśnie": 1526,
      "fejm": 1527,
      "cam": 1528,
      "całe": 1529,
      "free": 1530,
      "idą": 1531,
      "lle": 1532,
      "psy": 1533,
      "ćpa": 1534,
      "tes": 1535,
      "wio": 1536,
      "wyda": 1537,
      "cek": 1538,
      "pisa": 1539,
      "Powie": 1540,
      "Jacek": 1541,
      "ard": 1542,
      "pun": 1543,
      "lepsze": 1544,
      "pierdolić": 1545,
      "money": 1546,
      "zaczyna": 1547,
      "Kim": 1548,
      "wka": 1549,
      "Ła": 1550,
      "szto": 1551,
      "szka": 1552,
      "czo": 1553,
      "mach": 1554,
      "ziome": 1555,
      "wszystkim": 1556,
      "końcu": 1557,
      "Lubię": 1558,
      "wielki": 1559,
      "Pan": 1560,
      "Tan": 1561,
      "han": 1562,
      "kle": 1563,
      "lf": 1564,
      "oh": 1565,
      "twa": 1566,
      "wnie": 1567,
      "szcza": 1568,
      "czar": 1569,
      "nimi": 1570,
      "tua": 1571,
      "dzimy": 1572,
      "ciem": 1573,
      "szysz": 1574,
      "ziomuś": 1575,
      "sama": 1576,
      "róż": 1577,
      "Coś": 1578,
      "Kiedyś": 1579,
      "koleż": 1580,
      "Sza": 1581,
      "brze": 1582,
      "ber": 1583,
      "idź": 1584,
      "lla": 1585,
      "xy": 1586,
      "jem": 1587,
      "dokładnie": 1588,
      "pach": 1589,
      "baj": 1590,
      "ziomki": 1591,
      "mordę": 1592,
      "kręci": 1593,
      "zmienia": 1594,
      "Nicki": 1595,
      "dwu": 1596,
      "dwóch": 1597,
      "pt": 1598,
      "che": 1599,
      "dach": 1600,
      "pienią": 1601,
      "mieli": 1602,
      "chodź": 1603,
      "kurwi": 1604,
      "grał": 1605,
      "zdra": 1606,
      "piękne": 1607,
      "gwiaz": 1608,
      "howgh": 1609,
      "Hajs": 1610,
      "ogóle": 1611,
      "Kolejny": 1612,
      "Fio": 1613,
      "Mar": 1614,
      "fan": 1615,
      "lki": 1616,
      "plan": 1617,
      "tce": 1618,
      "ut": 1619,
      "ucie": 1620,
      "vvol": 1621,
      "były": 1622,
      "nego": 1623,
      "luz": 1624,
      "chanie": 1625,
      "melo": 1626,
      "pierdolę": 1627,
      "Mój": 1628,
      "Dzisiaj": 1629,
      "pamiętam": 1630,
      "miłość": 1631,
      "łaków": 1632,
      "Trzeba": 1633,
      "vvolno": 1634,
      "gą": 1635,
      "sio": 1636,
      "ób": 1637,
      "towa": 1638,
      "jech": 1639,
      "rza": 1640,
      "poma": 1641,
      "począ": 1642,
      "koniec": 1643,
      "gan": 1644,
      "ktop": 1645,
      "Ludzie": 1646,
      "myślisz": 1647,
      "drzwi": 1648,
      "Mów": 1649,
      "TO": 1650,
      "dnia": 1651,
      "sna": 1652,
      "źle": 1653,
      "lek": 1654,
      "wiecz": 1655,
      "dal": 1656,
      "moją": 1657,
      "stań": 1658,
      "Jeb": 1659,
      "innych": 1660,
      "proszę": 1661,
      "morda": 1662,
      "twoja": 1663,
      "przemy": 1664,
      "kończy": 1665,
      "prezen": 1666,
      "koncert": 1667,
      "follow": 1668,
      "Tanktop": 1669,
      "Faj": 1670,
      "Se": 1671,
      "Wracam": 1672,
      "gen": 1673,
      "pry": 1674,
      "you": 1675,
      "żar": 1676,
      "stą": 1677,
      "jego": 1678,
      "tyl": 1679,
      "koty": 1680,
      "mal": 1681,
      "tasz": 1682,
      "nosi": 1683,
      "jakie": 1684,
      "cale": 1685,
      "becel": 1686,
      "suje": 1687,
      "ród": 1688,
      "spotka": 1689,
      "powraca": 1690,
      "miejsce": 1691,
      "grubo": 1692,
      "mocno": 1693,
      "wróci": 1694,
      "polski": 1695,
      "beng": 1696,
      "Esende": 1697,
      "sorry": 1698,
      "\",": 1699,
      "Wtedy": 1700,
      "aż": 1701,
      "drin": 1702,
      "uda": 1703,
      "złe": 1704,
      "niech": 1705,
      "jedziemy": 1706,
      "chł": 1707,
      "len": 1708,
      "dziesz": 1709,
      "moi": 1710,
      "rzyd": 1711,
      "staj": 1712,
      "szyb": 1713,
      "Jazda": 1714,
      "Nawet": 1715,
      "czasu": 1716,
      "Chyba": 1717,
      "Mama": 1718,
      "Warszawa": 1719,
      "Cas": 1720,
      "Ki": 1721,
      "Pię": 1722,
      "ców": 1723,
      "dre": 1724,
      "pen": 1725,
      "wamy": 1726,
      "lecę": 1727,
      "tema": 1728,
      "lał": 1729,
      "zajebi": 1730,
      "cipy": 1731,
      "jaka": 1732,
      "dek": 1733,
      "bel": 1734,
      "prowa": 1735,
      "skre": 1736,
      "płytę": 1737,
      "hajsu": 1738,
      "Czuję": 1739,
      "aaaa": 1740,
      "chłopaki": 1741,
      "Hop": 1742,
      "Się": 1743,
      "Sły": 1744,
      "Tam": 1745,
      "Wo": 1746,
      "Zo": 1747,
      "fty": 1748,
      "far": 1749,
      "gin": 1750,
      "sja": 1751,
      "sów": 1752,
      "tna": 1753,
      "wchodzi": 1754,
      "nieść": 1755,
      "tom": 1756,
      "poz": 1757,
      "poja": 1758,
      "pozdro": 1759,
      "let": 1760,
      "tel": 1761,
      "tere": 1762,
      "lar": 1763,
      "woli": 1764,
      "kurwo": 1765,
      "insta": 1766,
      "mógł": 1767,
      "brak": 1768,
      "Taki": 1769,
      "Raz": 1770,
      "słychać": 1771,
      "człowiek": 1772,
      "słów": 1773,
      "Mes": 1774,
      "bangla": 1775,
      "Pamiętam": 1776,
      "dzieciak": 1777,
      "Go": 1778,
      "Hej": 1779,
      "Ke": 1780,
      "Oh": 1781,
      "TV": 1782,
      "Twój": 1783,
      "ew": 1784,
      "kół": 1785,
      "scho": 1786,
      "the": 1787,
      "niem": 1788,
      "rodzi": 1789,
      "linii": 1790,
      "zaraz": 1791,
      "kusi": 1792,
      "łat": 1793,
      "rape": 1794,
      "raper": 1795,
      "pierwsze": 1796,
      "Dokładnie": 1797,
      "Nike": 1798,
      "powiedz": 1799,
      "Dlatego": 1800,
      "Będę": 1801,
      "zią": 1802,
      "Suki": 1803,
      "jeździ": 1804,
      "obok": 1805,
      "Praw": 1806,
      "jeżdżam": 1807,
      "pki": 1808,
      "swa": 1809,
      "tku": 1810,
      "czaj": 1811,
      "poli": 1812,
      "lec": 1813,
      "niam": 1814,
      "wasz": 1815,
      "wiek": 1816,
      "nowa": 1817,
      "mamro": 1818,
      "bierz": 1819,
      "wór": 1820,
      "album": 1821,
      "włas": 1822,
      "pół": 1823,
      "szuka": 1824,
      "dzięki": 1825,
      "Fifty": 1826,
      "ziomeczku": 1827,
      "kło": 1828,
      "obra": 1829,
      "zm": 1830,
      "por": 1831,
      "poka": 1832,
      "tyka": 1833,
      "kol": 1834,
      "dosko": 1835,
      "jaz": 1836,
      "staw": 1837,
      "szedłem": 1838,
      "pek": 1839,
      "rozumie": 1840,
      "skła": 1841,
      "Zawsze": 1842,
      "Dobrze": 1843,
      "iast": 1844,
      "zoba": 1845,
      "proble": 1846,
      "pomału": 1847,
      "ad": 1848,
      "gam": 1849,
      "kwi": 1850,
      "knij": 1851,
      "wpa": 1852,
      "wszędzie": 1853,
      "zrobię": 1854,
      "czują": 1855,
      "lipa": 1856,
      "life": 1857,
      "wielkie": 1858,
      "paten": 1859,
      "bije": 1860,
      "stan": 1861,
      "chodzą": 1862,
      "chociaż": 1863,
      "inne": 1864,
      "rozu": 1865,
      "Chwi": 1866,
      "pum": 1867,
      "czach": 1868,
      "łącz": 1869,
      "mogą": 1870,
      "środku": 1871,
      "Ziom": 1872,
      "freestyle": 1873,
      "Casio": 1874,
      "blan": 1875,
      "fle": 1876,
      "fla": 1877,
      "fer": 1878,
      "os": 1879,
      "oko": 1880,
      "pło": 1881,
      "stał": 1882,
      "czi": 1883,
      "powy": 1884,
      "nika": 1885,
      "wierzę": 1886,
      "pany": 1887,
      "bić": 1888,
      "kuma": 1889,
      "ryt": 1890,
      "pia": 1891,
      "bran": 1892,
      "Char": 1893,
      "sach": 1894,
      "Takie": 1895,
      "Bory": 1896,
      "numer": 1897,
      "dis": 1898,
      "Polsce": 1899,
      "jeżdża": 1900,
      "Powiedz": 1901,
      "Mówię": 1902,
      "NI": 1903,
      "Sło": 1904,
      "TE": 1905,
      "bam": 1906,
      "dół": 1907,
      "fy": 1908,
      "opa": 1909,
      "wpad": 1910,
      "porz": 1911,
      "posy": 1912,
      "domu": 1913,
      "dziec": 1914,
      "tata": 1915,
      "bye": 1916,
      "kure": 1917,
      "wiadomo": 1918,
      "stoi": 1919,
      "płyty": 1920,
      "patrzą": 1921,
      "Przez": 1922,
      "swoim": 1923,
      "wbijam": 1924,
      "Mieć": 1925,
      "zdrawiam": 1926,
      "Całe": 1927,
      "Par": 1928,
      "Tru": 1929,
      "hy": 1930,
      "ksy": 1931,
      "lak": 1932,
      "nku": 1933,
      "sch": 1934,
      "who": 1935,
      "poza": 1936,
      "tera": 1937,
      "wany": 1938,
      "komer": 1939,
      "don": 1940,
      "lać": 1941,
      "wiz": 1942,
      "minu": 1943,
      "dzien": 1944,
      "daję": 1945,
      "zapom": 1946,
      "kumasz": 1947,
      "łach": 1948,
      "dziup": 1949,
      "gości": 1950,
      "rymy": 1951,
      "asa": 1952,
      "czenie": 1953,
      "Tego": 1954,
      "inny": 1955,
      "pytaj": 1956,
      "ooo": 1957,
      "Dzię": 1958,
      "warto": 1959,
      "Kole": 1960,
      "Lubi": 1961,
      "pamiętaj": 1962,
      "dziewczyn": 1963,
      "bankno": 1964,
      "film": 1965,
      "Buh": 1966,
      "osied": 1967,
      "jakoś": 1968,
      "Charlie": 1969,
      "Ben": 1970,
      "Daj": 1971,
      "Dup": 1972,
      "On": 1973,
      "Sy": 1974,
      "Słu": 1975,
      "bru": 1976,
      "lne": 1977,
      "spi": 1978,
      "tle": 1979,
      "zg": 1980,
      "zdo": 1981,
      "stre": 1982,
      "nasze": 1983,
      "jebię": 1984,
      "pora": 1985,
      "potrze": 1986,
      "emo": 1987,
      "kara": 1988,
      "zarabi": 1989,
      "tacy": 1990,
      "bywa": 1991,
      "wygląda": 1992,
      "bijaj": 1993,
      "łas": 1994,
      "gor": 1995,
      "piszę": 1996,
      "sytua": 1997,
      "sek": 1998,
      "hat": 1999,
      "cięż": 2000,
      "tąd": 2001,
      "alle": 2002,
      "zobacz": 2003,
      "!),": 2004,
      "racje": 2005,
      "sercem": 2006,
      "słowo": 2007,
      "gień": 2008,
      "chuja": 2009,
      "klub": 2010,
      "vibe": 2011,
      "łułułułu": 2012,
      "sukces": 2013,
      "kolwiek": 2014,
      "Dru": 2015,
      "ksz": 2016,
      "sji": 2017,
      "zne": 2018,
      "towar": 2019,
      "chno": 2020,
      "kola": 2021,
      "lałem": 2022,
      "kart": 2023,
      "zale": 2024,
      "kum": 2025,
      "pisze": 2026,
      "hoł": 2027,
      "Tedu": 2028,
      "kurde": 2029,
      "graj": 2030,
      "son": 2031,
      "can": 2032,
      "żebyś": 2033,
      "Widzisz": 2034,
      "drodze": 2035,
      "Samo": 2036,
      "strzał": 2037,
      "jeeebać": 2038,
      "kilka": 2039,
      "ptn": 2040,
      "Keptn": 2041,
      "whoop": 2042,
      "Rem": 2043,
      "Znam": 2044,
      "dny": 2045,
      "ina": 2046,
      "ly": 2047,
      "lny": 2048,
      "ogień": 2049,
      "swe": 2050,
      "try": 2051,
      "ura": 2052,
      "łóż": 2053,
      "nazy": 2054,
      "jebie": 2055,
      "czer": 2056,
      "pozosta": 2057,
      "wielu": 2058,
      "para": 2059,
      "kipi": 2060,
      "talnie": 2061,
      "cieć": 2062,
      "godzi": 2063,
      "gorą": 2064,
      "ryfi": 2065,
      "przede": 2066,
      "bierze": 2067,
      "gach": 2068,
      "prawie": 2069,
      "wiatr": 2070,
      "super": 2071,
      "przyja": 2072,
      "brał": 2073,
      "Chuj": 2074,
      "Dzwo": 2075,
      "skoro": 2076,
      "trzeć": 2077,
      "mordy": 2078,
      "jebany": 2079,
      "słyszę": 2080,
      "swoją": 2081,
      "Jesteśmy": 2082,
      "narkoty": 2083,
      "plik": 2084,
      "sprzeda": 2085,
      "Trzyha": 2086,
      "Czujesz": 2087,
      "BMW": 2088,
      "Idę": 2089,
      "Ju": 2090,
      "dwie": 2091,
      "dri": 2092,
      "el": 2093,
      "kraj": 2094,
      "nki": 2095,
      "wrac": 2096,
      "świ": 2097,
      "iem": 2098,
      "emu": 2099,
      "dol": 2100,
      "marze": 2101,
      "pać": 2102,
      "pań": 2103,
      "nowie": 2104,
      "wybacz": 2105,
      "kul": 2106,
      "banie": 2107,
      "stało": 2108,
      "przer": 2109,
      "stylu": 2110,
      "dźmy": 2111,
      "jednym": 2112,
      "fel": 2113,
      "studia": 2114,
      "diu": 2115,
      "Polsko": 2116,
      "słysz": 2117,
      "przedtem": 2118,
      "zmienić": 2119,
      "rąk": 2120,
      "chają": 2121,
      "jutro": 2122,
      "szmatą": 2123,
      "między": 2124,
      "zjadam": 2125,
      "Gibon": 2126,
      "kumpli": 2127,
      "całą": 2128,
      "sztos": 2129,
      "chłód": 2130,
      "Zobacz": 2131,
      "Kon": 2132,
      "Skąd": 2133,
      "Wa": 2134,
      "dów": 2135,
      "et": 2136,
      "jmy": 2137,
      "zły": 2138,
      "stów": 2139,
      "leje": 2140,
      "dora": 2141,
      "staje": 2142,
      "luja": 2143,
      "Niech": 2144,
      "Jacka": 2145,
      "grasz": 2146,
      "tamto": 2147,
      "suki": 2148,
      "znać": 2149,
      "przyj": 2150,
      "prawdy": 2151,
      "spoko": 2152,
      "kontro": 2153,
      "Żelipa": 2154,
      "sens": 2155,
      "Ktoś": 2156,
      "łeb": 2157,
      "dzwoni": 2158,
      "dziewczyny": 2159,
      "klasy": 2160,
      "słek": 2161,
      "król": 2162,
      "możemy": 2163,
      "zwyk": 2164,
      "Gib": 2165,
      "Merce": 2166,
      "skretny": 2167,
      "doskonale": 2168,
      "Dupą": 2169,
      "Sup": 2170,
      "ea": 2171,
      "fam": 2172,
      "gna": 2173,
      "has": 2174,
      "upad": 2175,
      "zga": 2176,
      "żu": 2177,
      "szko": 2178,
      "stry": 2179,
      "port": 2180,
      "lega": 2181,
      "typ": 2182,
      "kolo": 2183,
      "wym": 2184,
      "kuje": 2185,
      "chody": 2186,
      "west": 2187,
      "syf": 2188,
      "sonar": 2189,
      "jąc": 2190,
      "Nagry": 2191,
      "tami": 2192,
      "ziomków": 2193,
      "proste": 2194,
      "bur": 2195,
      "Chcą": 2196,
      "puść": 2197,
      "ngle": 2198,
      "końca": 2199,
      "Więcej": 2200,
      "krótce": 2201,
      "remix": 2202,
      "nagrywam": 2203,
      "fakt": 2204,
      "telefon": 2205,
      "splen": 2206,
      "Musisz": 2207,
      "dziupli": 2208,
      "potrzeb": 2209,
      "alleluja": 2210,
      "znes": 2211,
      "Al": 2212,
      "St": 2213,
      "Styl": 2214,
      "bó": 2215,
      "fski": 2216,
      "hu": 2217,
      "ide": 2218,
      "oczach": 2219,
      "wkur": 2220,
      "zon": 2221,
      "ńcu": 2222,
      "lach": 2223,
      "macie": 2224,
      "malnie": 2225,
      "dasz": 2226,
      "kun": 2227,
      "takim": 2228,
      "żeś": 2229,
      "gość": 2230,
      "Tobie": 2231,
      "loka": 2232,
      "pić": 2233,
      "orą": 2234,
      "czasy": 2235,
      "czasie": 2236,
      "czasach": 2237,
      "Zajebi": 2238,
      "wód": 2239,
      "hałas": 2240,
      "wario": 2241,
      "Byłem": 2242,
      "póź": 2243,
      "giem": 2244,
      "stety": 2245,
      "drugie": 2246,
      "trudno": 2247,
      "miejsca": 2248,
      "RRR": 2249,
      "następny": 2250,
      "jasne": 2251,
      "ciemno": 2252,
      "splendor": 2253,
      "Am": 2254,
      "Aha": 2255,
      "Fu": 2256,
      "Halleluja": 2257,
      "New": 2258,
      "Ooo": 2259,
      "wpada": 2260,
      "żą": 2261,
      "cztery": 2262,
      "rzą": 2263,
      "robo": 2264,
      "walę": 2265,
      "lato": 2266,
      "wij": 2267,
      "panie": 2268,
      "cisz": 2269,
      "wyje": 2270,
      "tuj": 2271,
      "cele": 2272,
      "cent": 2273,
      "czymy": 2274,
      "real": 2275,
      "Toczę": 2276,
      "rzyć": 2277,
      "Jebać": 2278,
      "rusz": 2279,
      "ruch": 2280,
      "innym": 2281,
      "robiłem": 2282,
      "impre": 2283,
      "prosto": 2284,
      "przyszło": 2285,
      "dupę": 2286,
      "rozk": 2287,
      "warsza": 2288,
      "słyszysz": 2289,
      "obchodzi": 2290,
      "serio": 2291,
      "lepszy": 2292,
      "wielbi": 2293,
      "miliony": 2294,
      "pewnie": 2295,
      "piosen": 2296,
      "sprawa": 2297,
      "Dissy": 2298,
      "MI": 2299,
      "NO": 2300,
      "Spo": 2301,
      "glo": 2302,
      "hard": 2303,
      "qu": 2304,
      "tó": 2305,
      "tri": 2306,
      "wni": 2307,
      "wski": 2308,
      "wcześ": 2309,
      "zamy": 2310,
      "zrób": 2311,
      "czuj": 2312,
      "tyk": 2313,
      "las": 2314,
      "wier": 2315,
      "zatrzyma": 2316,
      "pas": 2317,
      "wypierdalaj": 2318,
      "Typ": 2319,
      "syn": 2320,
      "rozpo": 2321,
      "track": 2322,
      "pierdolone": 2323,
      "jedną": 2324,
      "fury": 2325,
      "pełen": 2326,
      "Chociaż": 2327,
      "głę": 2328,
      "świecie": 2329,
      "rrrt": 2330,
      "szansę": 2331,
      "dwudzie": 2332,
      "swag": 2333,
      "problemy": 2334,
      "Dzięki": 2335,
      "Super": 2336,
      "Bie": 2337,
      "OV": 2338,
      "Oni": 2339,
      "Pó": 2340,
      "Pły": 2341,
      "Skurwysy": 2342,
      "Tro": 2343,
      "błę": 2344,
      "crazy": 2345,
      "eej": 2346,
      "gno": 2347,
      "mą": 2348,
      "tren": 2349,
      "uje": 2350,
      "uczy": 2351,
      "znik": 2352,
      "szła": 2353,
      "stki": 2354,
      "stałem": 2355,
      "top": 2356,
      "korzy": 2357,
      "koks": 2358,
      "emi": 2359,
      "widzą": 2360,
      "daw": 2361,
      "zasa": 2362,
      "zanim": 2363,
      "cisk": 2364,
      "coraz": 2365,
      "wystarczy": 2366,
      "dyskretny": 2367,
      "deka": 2368,
      "piero": 2369,
      "rzysz": 2370,
      "gang": 2371,
      "Jaca": 2372,
      "gramy": 2373,
      "dupa": 2374,
      "bus": 2375,
      "skrę": 2376,
      "hit": 2377,
      "pływa": 2378,
      "każde": 2379,
      "pierdolony": 2380,
      "mojej": 2381,
      "powrót": 2382,
      "szampan": 2383,
      "lajf": 2384,
      "miłości": 2385,
      "sterdam": 2386,
      "Twoja": 2387,
      "gimb": 2388,
      "szybko": 2389,
      "porząd": 2390,
      "Buhh": 2391,
      "Amsterdam": 2392,
      "20": 2393,
      "AC": 2394,
      "Gru": 2395,
      "KA": 2396,
      "Pła": 2397,
      "eta": 2398,
      "eco": 2399,
      "ode": 2400,
      "sra": 2401,
      "wspo": 2402,
      "śród": 2403,
      "szczu": 2404,
      "stru": 2405,
      "nasza": 2406,
      "niemy": 2407,
      "ron": 2408,
      "kot": 2409,
      "lau": 2410,
      "dziesią": 2411,
      "zapraszam": 2412,
      "bawi": 2413,
      "deszcz": 2414,
      "reprezen": 2415,
      "stau": 2416,
      "wek": 2417,
      "Też": 2418,
      "produ": 2419,
      "będziemy": 2420,
      "ścig": 2421,
      "Notes": 2422,
      "głoś": 2423,
      "koleś": 2424,
      "wąt": 2425,
      "Mylf": 2426,
      "Beze": 2427,
      "jeżdżę": 2428,
      "których": 2429,
      "dejdzie": 2430,
      "wolno": 2431,
      "Patrzę": 2432,
      "gówno": 2433,
      "join": 2434,
      "historia": 2435,
      "pisać": 2436,
      "wieczór": 2437,
      "Chwila": 2438,
      "Żelipapą": 2439,
      "Ge": 2440,
      "Oł": 2441,
      "Rób": 2442,
      "Wu": 2443,
      "brzyd": 2444,
      "dko": 2445,
      "es": 2446,
      "ex": 2447,
      "eli": 2448,
      "klat": 2449,
      "kój": 2450,
      "nur": 2451,
      "opo": 2452,
      "owo": 2453,
      "twar": 2454,
      "wną": 2455,
      "zde": 2456,
      "nagle": 2457,
      "pot": 2458,
      "temu": 2459,
      "roku": 2460,
      "kowa": 2461,
      "kać": 2462,
      "lić": 2463,
      "mil": 2464,
      "miar": 2465,
      "panowie": 2466,
      "bij": 2467,
      "del": 2468,
      "miesz": 2469,
      "Popatrz": 2470,
      "Jedna": 2471,
      "gadać": 2472,
      "żyje": 2473,
      "żyję": 2474,
      "eść": 2475,
      "odku": 2476,
      "hopo": 2477,
      "solo": 2478,
      "arty": 2479,
      "dlatego": 2480,
      "chasz": 2481,
      "płyną": 2482,
      "czuje": 2483,
      "najlepiej": 2484,
      "głowy": 2485,
      "full": 2486,
      "jutra": 2487,
      "skuma": 2488,
      "nagrywać": 2489,
      "idziesz": 2490,
      "czekaj": 2491,
      "Morda": 2492,
      "imprezę": 2493,
      "Miel": 2494,
      "szczyt": 2495,
      "pewne": 2496,
      "małolat": 2497,
      "Tedunio": 2498,
      "Remix": 2499,
      "porządku": 2500,
      "200": 2501,
      "Bra": 2502,
      "ER": 2503,
      "HA": 2504,
      "Lans": 2505,
      "Pu": 2506,
      "Pal": 2507,
      "brz": 2508,
      "bły": 2509,
      "ff": 2510,
      "fię": 2511,
      "isz": 2512,
      "og": 2513,
      "ple": 2514,
      "wsty": 2515,
      "wrzu": 2516,
      "wracam": 2517,
      "wzią": 2518,
      "śle": 2519,
      "chcem": 2520,
      "dzam": 2521,
      "liczę": 2522,
      "wien": 2523,
      "dale": 2524,
      "jaja": 2525,
      "zać": 2526,
      "king": 2527,
      "tape": 2528,
      "bycie": 2529,
      "kuj": 2530,
      "bau": 2531,
      "gołą": 2532,
      "Tobą": 2533,
      "los": 2534,
      "rapy": 2535,
      "rapem": 2536,
      "łuu": 2537,
      "prosty": 2538,
      "znaczy": 2539,
      "Zanim": 2540,
      "Mogę": 2541,
      "puści": 2542,
      "trak": 2543,
      "albo": 2544,
      "zamiast": 2545,
      "wami": 2546,
      "twoim": 2547,
      "foto": 2548,
      "serce": 2549,
      "niędzy": 2550,
      "nowych": 2551,
      "Insta": 2552,
      "fakty": 2553,
      "gadamy": 2554,
      "bejbe": 2555,
      "działa": 2556,
      "wiozę": 2557,
      "Fiodora": 2558,
      "początku": 2559,
      "TVN": 2560,
      "Trudno": 2561,
      "stauracje": 2562,
      "Kasa": 2563,
      "Yo": 2564,
      "awan": 2565,
      "grę": 2566,
      "ląd": 2567,
      "obu": 2568,
      "sprz": 2569,
      "usz": 2570,
      "wchodzę": 2571,
      "sti": 2572,
      "niesie": 2573,
      "toczy": 2574,
      "chi": 2575,
      "podzie": 2576,
      "poszło": 2577,
      "podej": 2578,
      "pozdrawiam": 2579,
      "tylu": 2580,
      "dole": 2581,
      "wido": 2582,
      "tarz": 2583,
      "com": 2584,
      "łatwo": 2585,
      "taką": 2586,
      "net": 2587,
      "debi": 2588,
      "boga": 2589,
      "piani": 2590,
      "siłę": 2591,
      "ujam": 2592,
      "Janu": 2593,
      "inni": 2594,
      "Moż": 2595,
      "mego": 2596,
      "często": 2597,
      "Wystarczy": 2598,
      "Przed": 2599,
      "studiu": 2600,
      "diss": 2601,
      "gdyby": 2602,
      "Człowie": 2603,
      "powiedzieć": 2604,
      "kaman": 2605,
      "górę": 2606,
      "chwile": 2607,
      "mogłem": 2608,
      "mikrofo": 2609,
      "klimat": 2610,
      "młody": 2611,
      "kogoś": 2612,
      "jasno": 2613,
      "Robimy": 2614,
      "moment": 2615,
      "momencie": 2616,
      "branży": 2617,
      "dziecko": 2618,
      "Słuchaj": 2619,
      "kultu": 2620,
      "Póki": 2621,
      "bauns": 2622,
      "36": 2623,
      "Alli": 2624,
      "Bit": 2625,
      "Du": 2626,
      "EL": 2627,
      "Gram": 2628,
      "GRRR": 2629,
      "Im": 2630,
      "Mia": 2631,
      "Słek": 2632,
      "lka": 2633,
      "show": 2634,
      "wny": 2635,
      "wen": 2636,
      "zaka": 2637,
      "nać": 2638,
      "rara": 2639,
      "tydzień": 2640,
      "tysią": 2641,
      "kobie": 2642,
      "wiamy": 2643,
      "mij": 2644,
      "dziewię": 2645,
      "pasuje": 2646,
      "tał": 2647,
      "tale": 2648,
      "byt": 2649,
      "wylu": 2650,
      "bara": 2651,
      "bale": 2652,
      "cen": 2653,
      "wokół": 2654,
      "piesz": 2655,
      "rum": 2656,
      "żył": 2657,
      "Japa": 2658,
      "pewien": 2659,
      "beczki": 2660,
      "Chci": 2661,
      "puszcz": 2662,
      "ścią": 2663,
      "płynę": 2664,
      "zama": 2665,
      "zamie": 2666,
      "twoich": 2667,
      "Kochanie": 2668,
      "najlepsze": 2669,
      "aaa": 2670,
      "Mówiłem": 2671,
      "tekst": 2672,
      "chwila": 2673,
      "strasz": 2674,
      "blask": 2675,
      "szczęście": 2676,
      "ogarnij": 2677,
      "Stop": 2678,
      "Cała": 2679,
      "czoraj": 2680,
      "jechał": 2681,
      "jakieś": 2682,
      "mamrot": 2683,
      "wcześniej": 2684,
      "gołąbeczki": 2685,
      "Allinka": 2686,
      "22": 2687,
      "Ban": 2688,
      "IR": 2689,
      "Olej": 2690,
      "Ri": 2691,
      "Spraw": 2692,
      "Uuu": 2693,
      "Wszędzie": 2694,
      "cku": 2695,
      "cją": 2696,
      "cóż": 2697,
      "lni": 2698,
      "spe": 2699,
      "spod": 2700,
      "snów": 2701,
      "th": 2702,
      "ćmy": 2703,
      "szli": 2704,
      "radio": 2705,
      "ame": 2706,
      "aman": 2707,
      "posłuchaj": 2708,
      "tytu": 2709,
      "rom": 2710,
      "wanie": 2711,
      "widzi": 2712,
      "zaczą": 2713,
      "zazdro": 2714,
      "pana": 2715,
      "ciłem": 2716,
      "kici": 2717,
      "kick": 2718,
      "wyżej": 2719,
      "bach": 2720,
      "żeli": 2721,
      "cieli": 2722,
      "czyli": 2723,
      "pies": 2724,
      "bieram": 2725,
      "Polo": 2726,
      "kiet": 2727,
      "sos": 2728,
      "tamtych": 2729,
      "ziomku": 2730,
      "Chło": 2731,
      "mówili": 2732,
      "Tań": 2733,
      "żad": 2734,
      "pierdalać": 2735,
      "chamie": 2736,
      "chamstwa": 2737,
      "Wszystkie": 2738,
      "piękny": 2739,
      "głów": 2740,
      "palmy": 2741,
      "czymś": 2742,
      "Będzie": 2743,
      "miejscu": 2744,
      "Dzieci": 2745,
      "pizdy": 2746,
      "Twoje": 2747,
      "Pierdolę": 2748,
      "pytają": 2749,
      "kilku": 2750,
      "ostat": 2751,
      "Disco": 2752,
      "pieniądze": 2753,
      "Parę": 2754,
      "Samochody": 2755,
      "ńcuch": 2756,
      "wyluzo": 2757,
      "Ce": 2758,
      "Fak": 2759,
      "Któ": 2760,
      "Tas": 2761,
      "ać": 2762,
      "aha": 2763,
      "br": 2764,
      "eb": 2765,
      "kamy": 2766,
      "kwest": 2767,
      "mm": 2768,
      "oto": 2769,
      "pem": 2770,
      "sho": 2771,
      "shi": 2772,
      "that": 2773,
      "uszy": 2774,
      "unieść": 2775,
      "wce": 2776,
      "totalnie": 2777,
      "jek": 2778,
      "jedy": 2779,
      "czemu": 2780,
      "nił": 2781,
      "wała": 2782,
      "wasze": 2783,
      "koka": 2784,
      "dosta": 2785,
      "kasz": 2786,
      "wisto": 2787,
      "lick": 2788,
      "mimo": 2789,
      "wieś": 2790,
      "dans": 2791,
      "jadą": 2792,
      "tali": 2793,
      "wycho": 2794,
      "łoło": 2795,
      "bija": 2796,
      "nent": 2797,
      "ryja": 2798,
      "rzył": 2799,
      "stara": 2800,
      "pił": 2801,
      "hopie": 2802,
      "czekam": 2803,
      "Teda": 2804,
      "szep": 2805,
      "samy": 2806,
      "lkon": 2807,
      "wóda": 2808,
      "mówisz": 2809,
      "nge": 2810,
      "spokój": 2811,
      "jednej": 2812,
      "właszcza": 2813,
      "słucham": 2814,
      "słuchać": 2815,
      "Kato": 2816,
      "rację": 2817,
      "obrót": 2818,
      "chłop": 2819,
      "tańcz": 2820,
      "lajka": 2821,
      "liczyć": 2822,
      "miejsc": 2823,
      "młodość": 2824,
      "Rozumiesz": 2825,
      "reszcie": 2826,
      "zmienił": 2827,
      "śpiewam": 2828,
      "dance": 2829,
      "koncerty": 2830,
      "ucieka": 2831,
      "gendar": 2832,
      "raperem": 2833,
      "Borysa": 2834,
      "Mercedes": 2835,
      "Mielno": 2836,
      "CA": 2837,
      "He": 2838,
      "Ho": 2839,
      "Wio": 2840,
      "cas": 2841,
      "damy": 2842,
      "gnie": 2843,
      "klie": 2844,
      "kłam": 2845,
      "oj": 2846,
      "speł": 2847,
      "ubra": 2848,
      "wczu": 2849,
      "wcale": 2850,
      "wkrótce": 2851,
      "świę": 2852,
      "żal": 2853,
      "niego": 2854,
      "jeśli": 2855,
      "rano": 2856,
      "pomy": 2857,
      "robie": 2858,
      "kochanie": 2859,
      "dow": 2860,
      "kana": 2861,
      "min": 2862,
      "mistrz": 2863,
      "dałem": 2864,
      "dawaj": 2865,
      "cik": 2866,
      "wychodzi": 2867,
      "biały": 2868,
      "baw": 2869,
      "wolu": 2870,
      "stach": 2871,
      "Nieważne": 2872,
      "pin": 2873,
      "Pozdro": 2874,
      "ruszy": 2875,
      "odpowie": 2876,
      "ziomy": 2877,
      "inter": 2878,
      "intere": 2879,
      "robił": 2880,
      "zeszy": 2881,
      "szach": 2882,
      "Moja": 2883,
      "Noc": 2884,
      "trzech": 2885,
      "myślą": 2886,
      "myśleć": 2887,
      "eep": 2888,
      "kładam": 2889,
      "głową": 2890,
      "słuch": 2891,
      "gardło": 2892,
      "Miałem": 2893,
      "lubisz": 2894,
      "bomby": 2895,
      "bombi": 2896,
      "Guczi": 2897,
      "chciałem": 2898,
      "ustach": 2899,
      "hejty": 2900,
      "yyyy": 2901,
      "zwrotki": 2902,
      "skończy": 2903,
      "wierzyć": 2904,
      "patrzysz": 2905,
      "Pięć": 2906,
      "hype": 2907,
      "Stres": 2908,
      "dziewięć": 2909,
      "gendarny": 2910,
      "Bio": 2911,
      "Kla": 2912,
      "Num": 2913,
      "Oto": 2914,
      "Pum": 2915,
      "SN": 2916,
      "Ser": 2917,
      "Zak": 2918,
      "Znaj": 2919,
      "obie": 2920,
      "osią": 2921,
      "odej": 2922,
      "sję": 2923,
      "uro": 2924,
      "wuj": 2925,
      "x4": 2926,
      "zje": 2927,
      "ńce": 2928,
      "źć": 2929,
      "ier": 2930,
      "szły": 2931,
      "szkla": 2932,
      "stka": 2933,
      "strzy": 2934,
      "nastu": 2935,
      "niedo": 2936,
      "rakie": 2937,
      "pole": 2938,
      "popatrz": 2939,
      "ponad": 2940,
      "rowe": 2941,
      "nikim": 2942,
      "komu": 2943,
      "ema": 2944,
      "wisz": 2945,
      "widział": 2946,
      "line": 2947,
      "minę": 2948,
      "zapo": 2949,
      "zasta": 2950,
      "palę": 2951,
      "cicho": 2952,
      "byli": 2953,
      "cof": 2954,
      "wyścig": 2955,
      "biznes": 2956,
      "miesią": 2957,
      "Posłuchaj": 2958,
      "asy": 2959,
      "czekola": 2960,
      "imię": 2961,
      "set": 2962,
      "sekun": 2963,
      "cycki": 2964,
      "ołg": 2965,
      "buty": 2966,
      "buja": 2967,
      "skę": 2968,
      "fit": 2969,
      "Maxy": 2970,
      "Noir": 2971,
      "ścier": 2972,
      "zdję": 2973,
      "myślałem": 2974,
      "rii": 2975,
      "lamu": 2976,
      "przemi": 2977,
      "słysze": 2978,
      "scenie": 2979,
      "manko": 2980,
      "zrobiłem": 2981,
      "gruby": 2982,
      "Legendarny": 2983,
      "Będą": 2984,
      "otwie": 2985,
      "Big": 2986,
      "tłuma": 2987,
      "normalnie": 2988,
      "przemyś": 2989,
      "spotkać": 2990,
      "Lubisz": 2991,
      "Drugi": 2992,
      "Zajebisty": 2993,
      "wariował": 2994,
      "Trochę": 2995,
      "pianista": 2996,
      "360": 2997,
      "Sprawdź": 2998,
      "(?)": 2999,
      "AL": 3000,
      "ES": 3001,
      "Ga": 3002,
      "JI": 3003,
      "KE": 3004,
      "OO": 3005,
      "PT": 3006,
      "Sor": 3007,
      "You": 3008,
      "blu": 3009,
      "die": 3010,
      "gnę": 3011,
      "idio": 3012,
      "krą": 3013,
      "plo": 3014,
      "sny": 3015,
      "zdą": 3016,
      "ęt": 3017,
      "sznur": 3018,
      "stw": 3019,
      "nau": 3020,
      "nadejdzie": 3021,
      "chem": 3022,
      "czne": 3023,
      "czkę": 3024,
      "popa": 3025,
      "potę": 3026,
      "pokaz": 3027,
      "kocha": 3028,
      "kocham": 3029,
      "doj": 3030,
      "dopiero": 3031,
      "maja": 3032,
      "mit": 3033,
      "jaram": 3034,
      "zacznie": 3035,
      "pato": 3036,
      "nocy": 3037,
      "byłeś": 3038,
      "łość": 3039,
      "tuje": 3040,
      "kumają": 3041,
      "rygi": 3042,
      "red": 3043,
      "pizda": 3044,
      "Podnie": 3045,
      "kiep": 3046,
      "muję": 3047,
      "Tym": 3048,
      "móc": 3049,
      "pel": 3050,
      "propo": 3051,
      "suko": 3052,
      "rój": 3053,
      "niać": 3054,
      "trafię": 3055,
      "mówił": 3056,
      "pierdole": 3057,
      "świad": 3058,
      "tron": 3059,
      "warty": 3060,
      "fekt": 3061,
      "studio": 3062,
      "kręcę": 3063,
      "face": 3064,
      "fajne": 3065,
      "fura": 3066,
      "stępny": 3067,
      "Warszafski": 3068,
      "bomba": 3069,
      "Deszcz": 3070,
      "głupi": 3071,
      "Piszę": 3072,
      "nawijam": 3073,
      "rzeczywisto": 3074,
      "gwiazd": 3075,
      "zakła": 3076,
      "zupeł": 3077,
      "Gramy": 3078,
      "Myślę": 3079,
      "wspó": 3080,
      "mixtape": 3081,
      "jakaś": 3082,
      "skład": 3083,
      "banknot": 3084,
      "Dzwoń": 3085,
      "KATO": 3086,
      "Płacą": 3087,
      "Mylffon": 3088,
      "brzydki": 3089,
      "wnątrz": 3090,
      "Palce": 3091,
      "Wiozę": 3092,
      "Biorę": 3093,
      "Sorry": 3094,
      "Au": 3095,
      "Elli": 3096,
      "Kup": 3097,
      "KMI": 3098,
      "Suj": 3099,
      "Zie": 3100,
      "car": 3101,
      "dwo": 3102,
      "har": 3103,
      "kr": 3104,
      "ofi": 3105,
      "snę": 3106,
      "uważ": 3107,
      "ubijaj": 3108,
      "waka": 3109,
      "wnio": 3110,
      "wjeżdża": 3111,
      "zrozu": 3112,
      "nara": 3113,
      "nada": 3114,
      "nagram": 3115,
      "nieba": 3116,
      "nieźle": 3117,
      "niestety": 3118,
      "jecha": 3119,
      "akcja": 3120,
      "akcji": 3121,
      "pozna": 3122,
      "pować": 3123,
      "leży": 3124,
      "nisz": 3125,
      "wani": 3126,
      "kasa": 3127,
      "wir": 3128,
      "widziałem": 3129,
      "wienia": 3130,
      "dają": 3131,
      "rzecz": 3132,
      "zach": 3133,
      "zatem": 3134,
      "tać": 3135,
      "nodze": 3136,
      "wypi": 3137,
      "wygra": 3138,
      "łaj": 3139,
      "back": 3140,
      "baun": 3141,
      "pieniędzy": 3142,
      "logo": 3143,
      "stanie": 3144,
      "przesta": 3145,
      "bony": 3146,
      "Poza": 3147,
      "siu": 3148,
      "łyż": 3149,
      "run": 3150,
      "gara": 3151,
      "Jacu": 3152,
      "Techno": 3153,
      "wiać": 3154,
      "ręki": 3155,
      "beze": 3156,
      "beat": 3157,
      "siem": 3158,
      "sus": 3159,
      "dźwię": 3160,
      "Także": 3161,
      "hity": 3162,
      "push": 3163,
      "media": 3164,
      "płyt": 3165,
      "Max": 3166,
      "Noji": 3167,
      "ściem": 3168,
      "eee": 3169,
      "trzymam": 3170,
      "hoppa": 3171,
      "pęt": 3172,
      "żebym": 3173,
      "Tutaj": 3174,
      "scena": 3175,
      "Widzę": 3176,
      "fuck": 3177,
      "ment": 3178,
      "samocho": 3179,
      "muzykę": 3180,
      "very": 3181,
      "walczy": 3182,
      "banda": 3183,
      "Warszawo": 3184,
      "out": 3185,
      "nagrał": 3186,
      "dziwko": 3187,
      "gadka": 3188,
      "Pierdolone": 3189,
      "dragi": 3190,
      "sprzedał": 3191,
      "jeździć": 3192,
      "reszta": 3193,
      "browar": 3194,
      "jedziesz": 3195,
      "jeeeeb": 3196,
      "skończ": 3197,
      "majk": 3198,
      "lećmy": 3199,
      "cześć": 3200,
      "button": 3201,
      "punkt": 3202,
      "Fajne": 3203,
      "zajebisty": 3204,
      "school": 3205,
      "Prawda": 3206,
      "NIKMI": 3207,
      "kurew": 3208,
      "narkotyku": 3209,
      "marzenia": 3210,
      "państwa": 3211,
      "wielbiam": 3212,
      "NOJI": 3213,
      "Róbmy": 3214,
      "Janusz": 3215,
      "wyluzować": 3216,
      "SND": 3217,
      "czekolady": 3218,
      "PTN": 3219,
      "Ellimina": 3220,
      "Sujbi": 3221,
      ".,": 3222,
      "600": 3223,
      "CD": 3224,
      "Wal": 3225,
      "Zna": 3226,
      "bre": 3227,
      "fie": 3228,
      "fra": 3229,
      "fal": 3230,
      "ham": 3231,
      "knie": 3232,
      "knaj": 3233,
      "nk": 3234,
      "oso": 3235,
      "psi": 3236,
      "prem": 3237,
      "ssi": 3238,
      "tko": 3239,
      "ukry": 3240,
      "wreszcie": 3241,
      "óg": 3242,
      "żo": 3243,
      "naszych": 3244,
      "jechać": 3245,
      "rana": 3246,
      "czni": 3247,
      "poty": 3248,
      "podo": 3249,
      "ler": 3250,
      "wach": 3251,
      "laz": 3252,
      "lacho": 3253,
      "latach": 3254,
      "wił": 3255,
      "widen": 3256,
      "lip": 3257,
      "cio": 3258,
      "cimy": 3259,
      "tag": 3260,
      "codzien": 3261,
      "wygry": 3262,
      "wydać": 3263,
      "bitu": 3264,
      "biorą": 3265,
      "badzie": 3266,
      "bane": 3267,
      "ryka": 3268,
      "kiej": 3269,
      "Jedzie": 3270,
      "ruje": 3271,
      "ent": 3272,
      "razie": 3273,
      "rapgrze": 3274,
      "sypie": 3275,
      "grają": 3276,
      "wiasz": 3277,
      "Nasze": 3278,
      "tamtym": 3279,
      "best": 3280,
      "promo": 3281,
      "rozum": 3282,
      "ską": 3283,
      "skrrrt": 3284,
      "szary": 3285,
      "eken": 3286,
      "podwór": 3287,
      "high": 3288,
      "fir": 3289,
      "hasz": 3290,
      "halo": 3291,
      "mówiłem": 3292,
      "trzecie": 3293,
      "spon": 3294,
      "spor": 3295,
      "sport": 3296,
      "Wyj": 3297,
      "Wypierdalaj": 3298,
      "Panie": 3299,
      "Nigdy": 3300,
      "eeej": 3301,
      "najgor": 3302,
      "głowę": 3303,
      "mojego": 3304,
      "póki": 3305,
      "padł": 3306,
      "miałeś": 3307,
      "jungle": 3308,
      "dzenia": 3309,
      "Szie": 3310,
      "wielka": 3311,
      "płacą": 3312,
      "którym": 3313,
      "gwiazda": 3314,
      "reet": 3315,
      "Pamiętasz": 3316,
      "której": 3317,
      "zwrotek": 3318,
      "skurwysyny": 3319,
      "Peł": 3320,
      "know": 3321,
      "ekipa": 3322,
      "Zamknij": 3323,
      "pieniądz": 3324,
      "towarzy": 3325,
      "rozumiem": 3326,
      "osiedlu": 3327,
      "kumpla": 3328,
      "daleko": 3329,
      "KEPTN": 3330,
      "16": 3331,
      "Ar": 3332,
      "Dam": 3333,
      "Dri": 3334,
      "Dryfi": 3335,
      "Gan": 3336,
      "JS": 3337,
      "KY": 3338,
      "One": 3339,
      "Ver": 3340,
      "Wjeżdżam": 3341,
      "Zrób": 3342,
      "Znasz": 3343,
      "ało": 3344,
      "bujam": 3345,
      "fru": 3346,
      "gię": 3347,
      "ist": 3348,
      "kst": 3349,
      "klo": 3350,
      "klę": 3351,
      "lson": 3352,
      "over": 3353,
      "rie": 3354,
      "włącz": 3355,
      "napi": 3356,
      "nieważne": 3357,
      "tony": 3358,
      "pogo": 3359,
      "koro": 3360,
      "lala": 3361,
      "lałeś": 3362,
      "mały": 3363,
      "mir": 3364,
      "wiemy": 3365,
      "jazd": 3366,
      "cip": 3367,
      "noszę": 3368,
      "bicie": 3369,
      "biri": 3370,
      "bijam": 3371,
      "mowa": 3372,
      "także": 3373,
      "cier": 3374,
      "pieprzy": 3375,
      "przeżyć": 3376,
      "Pokaż": 3377,
      "Typowy": 3378,
      "system": 3379,
      "szesna": 3380,
      "tamten": 3381,
      "beach": 3382,
      "stylem": 3383,
      "prawdą": 3384,
      "skrzy": 3385,
      "ekstra": 3386,
      "fii": 3387,
      "filo": 3388,
      "fisto": 3389,
      "Tedego": 3390,
      "jesteście": 3391,
      "skich": 3392,
      "wszedł": 3393,
      "najmniej": 3394,
      "pęka": 3395,
      "kami": 3396,
      "kolenie": 3397,
      "Była": 3398,
      "ważna": 3399,
      "góry": 3400,
      "Cią": 3401,
      "chwil": 3402,
      "forsy": 3403,
      "szczur": 3404,
      "siadam": 3405,
      "tańczy": 3406,
      "imprezka": 3407,
      "Halo": 3408,
      "Siema": 3409,
      "dziwki": 3410,
      "Dzień": 3411,
      "Dziewczy": 3412,
      "skiej": 3413,
      "wyjść": 3414,
      "Jork": 3415,
      "floor": 3416,
      "jechałem": 3417,
      "snapa": 3418,
      "złego": 3419,
      "Pięk": 3420,
      "jazdę": 3421,
      "blanca": 3422,
      "emocje": 3423,
      "zależ": 3424,
      "zwykłą": 3425,
      "rozpoznaj": 3426,
      "każdego": 3427,
      "HAJS": 3428,
      "awangar": 3429,
      "Człowiek": 3430,
      "tysiące": 3431,
      "Tedas": 3432,
      "Bar": 3433,
      "HP": 3434,
      "Kar": 3435,
      "Mnie": 3436,
      "N2": 3437,
      "Psy": 3438,
      "Phan": 3439,
      "Wró": 3440,
      "Znów": 3441,
      "abo": 3442,
      "cuj": 3443,
      "fas": 3444,
      "gnam": 3445,
      "isto": 3446,
      "kk": 3447,
      "klam": 3448,
      "lamy": 3449,
      "oczu": 3450,
      "tre": 3451,
      "tis": 3452,
      "uśmie": 3453,
      "uwierz": 3454,
      "uszach": 3455,
      "va": 3456,
      "val": 3457,
      "znie": 3458,
      "zgo": 3459,
      "Ża": 3460,
      "szan": 3461,
      "towy": 3462,
      "chmu": 3463,
      "racja": 3464,
      "poszedł": 3465,
      "lew": 3466,
      "rower": 3467,
      "nigdzie": 3468,
      "dowa": 3469,
      "kap": 3470,
      "wina": 3471,
      "max": 3472,
      "mać": 3473,
      "dzieli": 3474,
      "day": 3475,
      "jach": 3476,
      "zacz": 3477,
      "zapierdala": 3478,
      "załat": 3479,
      "nom": 3480,
      "now": 3481,
      "nosy": 3482,
      "nową": 3483,
      "wyso": 3484,
      "bił": 3485,
      "bitach": 3486,
      "cieka": 3487,
      "cer": 3488,
      "rej": 3489,
      "reali": 3490,
      "lona": 3491,
      "przeży": 3492,
      "ion": 3493,
      "Pow": 3494,
      "Pomyśl": 3495,
      "pracy": 3496,
      "odpuść": 3497,
      "hot": 3498,
      "Jac": 3499,
      "orem": 3500,
      "znają": 3501,
      "sezon": 3502,
      "skrzyd": 3503,
      "stoli": 3504,
      "Jakie": 3505,
      "Taka": 3506,
      "Zaraz": 3507,
      "wóz": 3508,
      "meta": 3509,
      "każda": 3510,
      "czuwa": 3511,
      "Wybacz": 3512,
      "fea": 3513,
      "którzy": 3514,
      "fony": 3515,
      "Mówili": 3516,
      "gólnie": 3517,
      "łączy": 3518,
      "teksty": 3519,
      "mental": 3520,
      "old": 3521,
      "Lecę": 3522,
      "forsa": 3523,
      "ciuchy": 3524,
      "sprawdzić": 3525,
      "Micha": 3526,
      "chłopaków": 3527,
      "Przyj": 3528,
      "palcem": 3529,
      "trum": 3530,
      "Muszę": 3531,
      "ght": 3532,
      "banger": 3533,
      "imprezie": 3534,
      "ziele": 3535,
      "szmal": 3536,
      "pizdu": 3537,
      "pisał": 3538,
      "pliki": 3539,
      "zako": 3540,
      "Pamiętaj": 3541,
      "karie": 3542,
      "resztą": 3543,
      "wyjdzie": 3544,
      "zajaw": 3545,
      "zajawka": 3546,
      "należy": 3547,
      "ostatni": 3548,
      "minisz": 3549,
      "Fiodor": 3550,
      "obraź": 3551,
      "patent": 3552,
      "ferno": 3553,
      "okoła": 3554,
      "Słowa": 3555,
      "posypany": 3556,
      "Benz": 3557,
      "burdel": 3558,
      "hardco": 3559,
      "wstyd": 3560,
      "IROV": 3561,
      "Chłopak": 3562,
      "showbi": 3563,
      "przemyśl": 3564,
      "Podnieś": 3565,
      "ekend": 3566,
      "Drina": 3567,
      "HPIROV": 3568,
      "24": 3569,
      "AT": 3570,
      "Bej": 3571,
      "CH": 3572,
      "Cóż": 3573,
      "Fle": 3574,
      "Szy": 3575,
      "Stra": 3576,
      "Skład": 3577,
      "Vol": 3578,
      "Wchodzi": 3579,
      "Wchodzę": 3580,
      "Zrobi": 3581,
      "gg": 3582,
      "hał": 3583,
      "knę": 3584,
      "ox": 3585,
      "ość": 3586,
      "okaz": 3587,
      "orygi": 3588,
      "san": 3589,
      "ssie": 3590,
      "slow": 3591,
      "umar": 3592,
      "wsa": 3593,
      "wste": 3594,
      "szar": 3595,
      "chro": 3596,
      "chla": 3597,
      "chcieć": 3598,
      "czna": 3599,
      "popraw": 3600,
      "ning": 3601,
      "kos": 3602,
      "koło": 3603,
      "liter": 3604,
      "wień": 3605,
      "dzieścia": 3606,
      "zawi": 3607,
      "pani": 3608,
      "papier": 3609,
      "nogach": 3610,
      "con": 3611,
      "cor": 3612,
      "tual": 3613,
      "mogi": 3614,
      "kuję": 3615,
      "łaał": 3616,
      "cien": 3617,
      "dee": 3618,
      "ryn": 3619,
      "ryję": 3620,
      "rewolu": 3621,
      "woka": 3622,
      "przejebane": 3623,
      "enty": 3624,
      "gada": 3625,
      "prawo": 3626,
      "inna": 3627,
      "czasami": 3628,
      "cyj": 3629,
      "tramp": 3630,
      "tracki": 3631,
      "płycie": 3632,
      "część": 3633,
      "Nowa": 3634,
      "Nowe": 3635,
      "wałeś": 3636,
      "skim": 3637,
      "jebana": 3638,
      "trolle": 3639,
      "zdrów": 3640,
      "miała": 3641,
      "miasta": 3642,
      "miastem": 3643,
      "Tacy": 3644,
      "ciach": 3645,
      "Przepraszam": 3646,
      "dimir": 3647,
      "kręca": 3648,
      "sensu": 3649,
      "sceny": 3650,
      "Widać": 3651,
      "ważny": 3652,
      "gór": 3653,
      "play": 3654,
      "drugim": 3655,
      "forsę": 3656,
      "piękna": 3657,
      "vel": 3658,
      "chłopakami": 3659,
      "szukaj": 3660,
      "liczył": 3661,
      "klubu": 3662,
      "vival": 3663,
      "głupia": 3664,
      "Siedzę": 3665,
      "gadki": 3666,
      "Władimir": 3667,
      "wejść": 3668,
      "Suczy": 3669,
      "darmo": 3670,
      "Kumasz": 3671,
      "historię": 3672,
      "prawdziwe": 3673,
      "ekipy": 3674,
      "floty": 3675,
      "tematy": 3676,
      "dzieciaki": 3677,
      "mamrotrap": 3678,
      "Kolesie": 3679,
      "karabaj": 3680,
      "inaczej": 3681,
      "czerwo": 3682,
      "ból": 3683,
      "glokk": 3684,
      "małolatki": 3685,
      "Olejnik": 3686,
      "tytuł": 3687,
      "Numer": 3688,
      "rzeczywistość": 3689,
      "Elliminati": 3690,
      "Sujbitron": 3691,
      "filozo": 3692,
      "Phantom": 3693,
      "(#": 3694,
      "Bau": 3695,
      "Fa": 3696,
      "IE": 3697,
      "Joh": 3698,
      "Lo": 3699,
      "Sa": 3700,
      "Si": 3701,
      "Sk": 3702,
      "Up": 3703,
      "Vani": 3704,
      "XL": 3705,
      "_money": 3706,
      "af": 3707,
      "elo": 3708,
      "flam": 3709,
      "kł": 3710,
      "oku": 3711,
      "oce": 3712,
      "pej": 3713,
      "prę": 3714,
      "swą": 3715,
      "tkę": 3716,
      "tłek": 3717,
      "uja": 3718,
      "udział": 3719,
      "zą": 3720,
      "zim": 3721,
      "zbyt": 3722,
      "szki": 3723,
      "stały": 3724,
      "nielega": 3725,
      "total": 3726,
      "jedźmy": 3727,
      "chamy": 3728,
      "chcieli": 3729,
      "aki": 3730,
      "podob": 3731,
      "pogrze": 3732,
      "tedes": 3733,
      "techno": 3734,
      "tymi": 3735,
      "niе": 3736,
      "dosy": 3737,
      "winie": 3738,
      "winy": 3739,
      "marzę": 3740,
      "liga": 3741,
      "ligi": 3742,
      "jazda": 3743,
      "zany": 3744,
      "zapamiętaj": 3745,
      "wyją": 3746,
      "białe": 3747,
      "tura": 3748,
      "tune": 3749,
      "tuję": 3750,
      "kupi": 3751,
      "bas": 3752,
      "balan": 3753,
      "ciel": 3754,
      "ryczny": 3755,
      "retro": 3756,
      "restauracje": 3757,
      "rewir": 3758,
      "wolę": 3759,
      "loop": 3760,
      "mamą": 3761,
      "boom": 3762,
      "szym": 3763,
      "tent": 3764,
      "ase": 3765,
      "odpierdala": 3766,
      "czeń": 3767,
      "syp": 3768,
      "inte": 3769,
      "móz": 3770,
      "rękę": 3771,
      "Nastu": 3772,
      "Naprawdę": 3773,
      "ansy": 3774,
      "siedzi": 3775,
      "lkoho": 3776,
      "suczy": 3777,
      "znał": 3778,
      "znaczą": 3779,
      "sekre": 3780,
      "dupoli": 3781,
      "Jaki": 3782,
      "hau": 3783,
      "Dokąd": 3784,
      "pierdolą": 3785,
      "ściej": 3786,
      "jebał": 3787,
      "kontak": 3788,
      "głos": 3789,
      "czapki": 3790,
      "musimy": 3791,
      "Cztery": 3792,
      "żadne": 3793,
      "swoich": 3794,
      "pędzi": 3795,
      "Był": 3796,
      "manda": 3797,
      "pełnym": 3798,
      "Kurde": 3799,
      "zamknąć": 3800,
      "chwili": 3801,
      "muzyki": 3802,
      "pięknie": 3803,
      "dzwonię": 3804,
      "Szu": 3805,
      "palce": 3806,
      "trudne": 3807,
      "Mefisto": 3808,
      "Będziemy": 3809,
      "Muzy": 3810,
      "Onar": 3811,
      "czekać": 3812,
      "spać": 3813,
      "pierwsza": 3814,
      "Siemanko": 3815,
      "zwyczaj": 3816,
      "pisałem": 3817,
      "telewiz": 3818,
      "następni": 3819,
      "lecimy": 3820,
      "strzela": 3821,
      "sukcez": 3822,
      "podniesio": 3823,
      "Panzer": 3824,
      "ohh": 3825,
      "pensji": 3826,
      "Prawdzi": 3827,
      "TED": 3828,
      "stream": 3829,
      "zarabia": 3830,
      "Nagrywam": 3831,
      "gimb_money": 3832,
      "etap": 3833,
      "brzmi": 3834,
      "chcemy": 3835,
      "widok": 3836,
      "baunsuj": 3837,
      "talent": 3838,
      "samym": 3839,
      "klien": 3840,
      "robienia": 3841,
      "wujo": 3842,
      "szklanych": 3843,
      "łyżką": 3844,
      "najgorszy": 3845,
      "Psycho": 3846,
      "wstecz": 3847,
      "karabajna": 3848,
      "-,": 3849,
      "Bor": 3850,
      "Idź": 3851,
      "Jej": 3852,
      "JAC": 3853,
      "Kró": 3854,
      "Nor": 3855,
      "Ogólnie": 3856,
      "San": 3857,
      "Sur": 3858,
      "Skoń": 3859,
      "TW": 3860,
      "Tra": 3861,
      "Wej": 3862,
      "Wia": 3863,
      "ana": 3864,
      "bem": 3865,
      "ele": 3866,
      "ita": 3867,
      "ld": 3868,
      "pró": 3869,
      "sje": 3870,
      "ssa": 3871,
      "słe": 3872,
      "Ło": 3873,
      "śnij": 3874,
      "szpa": 3875,
      "street": 3876,
      "tonie": 3877,
      "jeansy": 3878,
      "rat": 3879,
      "rany": 3880,
      "aku": 3881,
      "akcje": 3882,
      "poda": 3883,
      "poczu": 3884,
      "lera": 3885,
      "wane": 3886,
      "koja": 3887,
      "kowy": 3888,
      "doty": 3889,
      "laty": 3890,
      "kaska": 3891,
      "magi": 3892,
      "lisz": 3893,
      "liście": 3894,
      "live": 3895,
      "rzeź": 3896,
      "rzeka": 3897,
      "zaj": 3898,
      "zapach": 3899,
      "palą": 3900,
      "ności": 3901,
      "notes": 3902,
      "wyszedł": 3903,
      "wygrać": 3904,
      "tus": 3905,
      "mogło": 3906,
      "kuro": 3907,
      "bap": 3908,
      "ciera": 3909,
      "dym": 3910,
      "woj": 3911,
      "wość": 3912,
      "rzyj": 3913,
      "lon": 3914,
      "logi": 3915,
      "lock": 3916,
      "przeko": 3917,
      "przeci": 3918,
      "przestać": 3919,
      "mamru": 3920,
      "mieszka": 3921,
      "Jedy": 3922,
      "życz": 3923,
      "żyłem": 3924,
      "odci": 3925,
      "czek": 3926,
      "Tekst": 3927,
      "indziej": 3928,
      "tamte": 3929,
      "siema": 3930,
      "siedzą": 3931,
      "przykro": 3932,
      "brakuje": 3933,
      "podło": 3934,
      "Zap": 3935,
      "trzę": 3936,
      "mery": 3937,
      "pysk": 3938,
      "skoczy": 3939,
      "...)": 3940,
      "lando": 3941,
      "spoj": 3942,
      "zamu": 3943,
      "warte": 3944,
      "Radio": 3945,
      "Taa": 3946,
      "hiphop": 3947,
      "Koń": 3948,
      "czaisz": 3949,
      "cjalnie": 3950,
      "Czołg": 3951,
      "żaden": 3952,
      "sentym": 3953,
      "powiedział": 3954,
      "serca": 3955,
      "zrobimy": 3956,
      "Czasami": 3957,
      "platy": 3958,
      "parkiet": 3959,
      "chęć": 3960,
      "druga": 3961,
      "muzyce": 3962,
      "merrr": 3963,
      "kreśli": 3964,
      "dziewczyna": 3965,
      "rand": 3966,
      "walce": 3967,
      "mocniej": 3968,
      "siapsi": 3969,
      "Melo": 3970,
      "szukam": 3971,
      "klubie": 3972,
      "Dalej": 3973,
      "Dawaj": 3974,
      "nagrać": 3975,
      "dług": 3976,
      "słuchają": 3977,
      "strony": 3978,
      "Kusi": 3979,
      "Hajsu": 3980,
      "kumple": 3981,
      "majka": 3982,
      "większy": 3983,
      "prawdziwa": 3984,
      "prawdziwy": 3985,
      "Czekaj": 3986,
      "ulicy": 3987,
      "osiem": 3988,
      "Merca": 3989,
      "pójrz": 3990,
      "gwiazdą": 3991,
      "larny": 3992,
      "zobaczysz": 3993,
      "disco": 3994,
      "drive": 3995,
      "szkoda": 3996,
      "później": 3997,
      "cash": 3998,
      "Znajo": 3999,
      "słyszeć": 4000,
      "zupełnie": 4001,
      "hardcore": 4002,
      "Upss": 4003,
      "dupoliz": 4004,
      "TEDE": 4005,
      "merrrda": 4006,
      "10": 4007,
      "12": 4008,
      "BR": 4009,
      "Bą": 4010,
      "En": 4011,
      "Hoł": 4012,
      "Ilu": 4013,
      "Py": 4014,
      "Put": 4015,
      "So": 4016,
      "Szam": 4017,
      "Uwielbiam": 4018,
      "Wali": 4019,
      "ała": 4020,
      "cór": 4021,
      "epi": 4022,
      "fre": 4023,
      "fami": 4024,
      "gn": 4025,
      "gląd": 4026,
      "nsyn": 4027,
      "pcham": 4028,
      "rty": 4029,
      "sm": 4030,
      "skiem": 4031,
      "tkach": 4032,
      "una": 4033,
      "uwa": 4034,
      "ury": 4035,
      "use": 4036,
      "ukła": 4037,
      "wdzię": 4038,
      "wkurwi": 4039,
      "wjeżdżam": 4040,
      "zni": 4041,
      "zji": 4042,
      "zdej": 4043,
      "ówa": 4044,
      "Łu": 4045,
      "łzy": 4046,
      "śni": 4047,
      "śmi": 4048,
      "żnij": 4049,
      "szla": 4050,
      "sześć": 4051,
      "nat": 4052,
      "nade": 4053,
      "jer": 4054,
      "pop": 4055,
      "posta": 4056,
      "popu": 4057,
      "pomyśl": 4058,
      "powoli": 4059,
      "pogadamy": 4060,
      "tyw": 4061,
      "niczym": 4062,
      "komuś": 4063,
      "dotyk": 4064,
      "dostałem": 4065,
      "kają": 4066,
      "lik": 4067,
      "limit": 4068,
      "wiedział": 4069,
      "rzej": 4070,
      "zacho": 4071,
      "pało": 4072,
      "papie": 4073,
      "patrzeć": 4074,
      "taa": 4075,
      "wyż": 4076,
      "tuli": 4077,
      "mos": 4078,
      "kuta": 4079,
      "łańcuch": 4080,
      "balkon": 4081,
      "deł": 4082,
      "ryje": 4083,
      "czytam": 4084,
      "lowy": 4085,
      "przekro": 4086,
      "przeszło": 4087,
      "boy": 4088,
      "luj": 4089,
      "ludz": 4090,
      "biej": 4091,
      "Niejeden": 4092,
      "pil": 4093,
      "piź": 4094,
      "piszą": 4095,
      "Pozna": 4096,
      "Pokolenie": 4097,
      "łyje": 4098,
      "tencja": 4099,
      "prawa": 4100,
      "odu": 4101,
      "hoch": 4102,
      "instru": 4103,
      "rękach": 4104,
      "cali": 4105,
      "Nara": 4106,
      "ziomem": 4107,
      "siedzimy": 4108,
      "znale": 4109,
      "znamy": 4110,
      "Wielki": 4111,
      "czasów": 4112,
      "chach": 4113,
      "języ": 4114,
      "sała": 4115,
      "Zaja": 4116,
      "fia": 4117,
      "finał": 4118,
      "tempo": 4119,
      "trans": 4120,
      "Tedeusz": 4121,
      "haha": 4122,
      "mega": 4123,
      "Boga": 4124,
      "Marzę": 4125,
      "myśle": 4126,
      "Wyjebane": 4127,
      "chodzić": 4128,
      "Kocham": 4129,
      "życiem": 4130,
      "najlepszy": 4131,
      "żać": 4132,
      "słyszą": 4133,
      "kimś": 4134,
      "trwamy": 4135,
      "terro": 4136,
      "fali": 4137,
      "faja": 4138,
      "zrobił": 4139,
      "Witam": 4140,
      "pełnej": 4141,
      "plany": 4142,
      "grupa": 4143,
      "droga": 4144,
      "randol": 4145,
      "gene": 4146,
      "true": 4147,
      "bomb": 4148,
      "zostało": 4149,
      "wrócę": 4150,
      "wajb": 4151,
      "mogli": 4152,
      "wbija": 4153,
      "rrr": 4154,
      "Ref": 4155,
      "imprezą": 4156,
      "Miej": 4157,
      "blisko": 4158,
      "sław": 4159,
      "głup": 4160,
      "pismo": 4161,
      "Proszę": 4162,
      "środka": 4163,
      "oboję": 4164,
      "kumplem": 4165,
      "Robisz": 4166,
      "sprawy": 4167,
      "normal": 4168,
      "martwych": 4169,
      "Zamiast": 4170,
      "Łap": 4171,
      "twarzy": 4172,
      "koleżan": 4173,
      "gwiazdy": 4174,
      "fanów": 4175,
      "początek": 4176,
      "lekko": 4177,
      "wrócił": 4178,
      "rapera": 4179,
      "kwit": 4180,
      "płonie": 4181,
      "rytmu": 4182,
      "Borys": 4183,
      "zdoby": 4184,
      "kumpel": 4185,
      "słyszałem": 4186,
      "fama": 4187,
      "zgadza": 4188,
      "późno": 4189,
      "drugiej": 4190,
      "Full": 4191,
      "centrum": 4192,
      "impreza": 4193,
      "przyszłość": 4194,
      "głębo": 4195,
      "trend": 4196,
      "Bezele": 4197,
      "Jednak": 4198,
      "trakcie": 4199,
      "puszczam": 4200,
      "ameryka": 4201,
      "kwestia": 4202,
      "miesiąc": 4203,
      "sekundę": 4204,
      "Jacula": 4205,
      "Pełen": 4206,
      "fason": 4207,
      "mogile": 4208,
      "dosyć": 4209,
      "Putin": 4210,
      "!\"": 4211,
      "AA": 4212,
      "Con": 4213,
      "Dy": 4214,
      "El": 4215,
      "For": 4216,
      "Głu": 4217,
      "Han": 4218,
      "Iść": 4219,
      "Jaman": 4220,
      "Lam": 4221,
      "Mają": 4222,
      "Nam": 4223,
      "Nar": 4224,
      "Sła": 4225,
      "Strze": 4226,
      "Ti": 4227,
      "Wrę": 4228,
      "Zosta": 4229,
      "ast": 4230,
      "aar": 4231,
      "dż": 4232,
      "dryfi": 4233,
      "efekt": 4234,
      "gne": 4235,
      "gną": 4236,
      "iny": 4237,
      "idziemy": 4238,
      "knąć": 4239,
      "lna": 4240,
      "mąd": 4241,
      "of": 4242,
      "pr": 4243,
      "psiapsi": 4244,
      "sma": 4245,
      "sną": 4246,
      "skur": 4247,
      "snąć": 4248,
      "tto": 4249,
      "tno": 4250,
      "upał": 4251,
      "wrze": 4252,
      "wło": 4253,
      "wsta": 4254,
      "wkładam": 4255,
      "zwi": 4256,
      "zła": 4257,
      "zuję": 4258,
      "zgar": 4259,
      "zwal": 4260,
      "śla": 4261,
      "śpi": 4262,
      "naaar": 4263,
      "nierz": 4264,
      "niebie": 4265,
      "radę": 4266,
      "radia": 4267,
      "czam": 4268,
      "czko": 4269,
      "cztere": 4270,
      "potrafi": 4271,
      "poczuć": 4272,
      "poczuj": 4273,
      "leń": 4274,
      "lecieć": 4275,
      "level": 4276,
      "nit": 4277,
      "wały": 4278,
      "waszych": 4279,
      "kase": 4280,
      "wiają": 4281,
      "mas": 4282,
      "main": 4283,
      "listy": 4284,
      "sięć": 4285,
      "minam": 4286,
      "dajesz": 4287,
      "zawieś": 4288,
      "padnie": 4289,
      "palec": 4290,
      "tatą": 4291,
      "nos": 4292,
      "wydaje": 4293,
      "wychodzę": 4294,
      "jakbym": 4295,
      "biór": 4296,
      "tują": 4297,
      "taku": 4298,
      "bat": 4299,
      "bani": 4300,
      "bawić": 4301,
      "żegna": 4302,
      "dziłem": 4303,
      "godnie": 4304,
      "deo": 4305,
      "dep": 4306,
      "deszczu": 4307,
      "czyta": 4308,
      "woje": 4309,
      "piera": 4310,
      "piekła": 4311,
      "ówki": 4312,
      "stare": 4313,
      "przezna": 4314,
      "szyk": 4315,
      "luje": 4316,
      "lują": 4317,
      "luję": 4318,
      "piach": 4319,
      "Poder": 4320,
      "Jeżeli": 4321,
      "ruję": 4322,
      "rusza": 4323,
      "razu": 4324,
      "gazu": 4325,
      "mur": 4326,
      "muza": 4327,
      "muszą": 4328,
      "choooo": 4329,
      "żyli": 4330,
      "żyrandol": 4331,
      "odź": 4332,
      "odbieram": 4333,
      "wee": 4334,
      "weekend": 4335,
      "hotel": 4336,
      "Tedzi": 4337,
      "kurki": 4338,
      "gran": 4339,
      "zioma": 4340,
      "ziomal": 4341,
      "szek": 4342,
      "Nad": 4343,
      "props": 4344,
      "sur": 4345,
      "seks": 4346,
      "Wiedzą": 4347,
      "przyznać": 4348,
      "cym": 4349,
      "prawej": 4350,
      "dur": 4351,
      "duży": 4352,
      "brauna": 4353,
      "rozma": 4354,
      "stoję": 4355,
      "gibon": 4356,
      "Chodź": 4357,
      "puszcza": 4358,
      "trawą": 4359,
      "pytam": 4360,
      "każdej": 4361,
      "nęli": 4362,
      "światu": 4363,
      "all": 4364,
      "Roll": 4365,
      "trzeci": 4366,
      "spot": 4367,
      "zamia": 4368,
      "zamęt": 4369,
      "twojej": 4370,
      "tępą": 4371,
      "Mógł": 4372,
      "gęsta": 4373,
      "którą": 4374,
      "powracam": 4375,
      "Miał": 4376,
      "powietrz": 4377,
      "Odkręć": 4378,
      "Mówisz": 4379,
      "trwać": 4380,
      "trwam": 4381,
      "seria": 4382,
      "kolesie": 4383,
      "scenę": 4384,
      "Było": 4385,
      "fajki": 4386,
      "Dlaczego": 4387,
      "zdanie": 4388,
      "nięty": 4389,
      "parking": 4390,
      "drugą": 4391,
      "Lecz": 4392,
      "drogi": 4393,
      "drogę": 4394,
      "ludziom": 4395,
      "pamiętasz": 4396,
      "meri": 4397,
      "krew": 4398,
      "dziewczyno": 4399,
      "róbuj": 4400,
      "Szcze": 4401,
      "Każdą": 4402,
      "nius": 4403,
      "Rysiu": 4404,
      "Rychoooo": 4405,
      "świeży": 4406,
      "wolne": 4407,
      "nagrałem": 4408,
      "uuuu": 4409,
      "traphał": 4410,
      "Pierdolony": 4411,
      "śmier": 4412,
      "skończyć": 4413,
      "pieprzą": 4414,
      "całej": 4415,
      "ogarnia": 4416,
      "większ": 4417,
      "ogólnie": 4418,
      "skurwysynu": 4419,
      "koncercie": 4420,
      "Zero": 4421,
      "krzyw": 4422,
      "hand": 4423,
      "różni": 4424,
      "stajnie": 4425,
      "tematu": 4426,
      "banglasz": 4427,
      "rytm": 4428,
      "posyp": 4429,
      "schlał": 4430,
      "Beng": 4431,
      "sytuacja": 4432,
      "sytuacji": 4433,
      "sekwen": 4434,
      "pozostaje": 4435,
      "gorące": 4436,
      "eah": 4437,
      "lokal": 4438,
      "Ooonaaar": 4439,
      "przyszłości": 4440,
      "laurach": 4441,
      "produk": 4442,
      "głośno": 4443,
      "Genius": 4444,
      "hopowa": 4445,
      "wziął": 4446,
      "podejście": 4447,
      "Możemy": 4448,
      "zakazany": 4449,
      "zacząć": 4450,
      "dancefloor": 4451,
      "dziewięćdziesią": 4452,
      "spontan": 4453,
      "istnie": 4454,
      "Ciągle": 4455,
      "abonent": 4456,
      "Jackiem": 4457,
      "Chłopaki": 4458,
      "Bejbi": 4459,
      "trampki": 4460,
      "flamek": 4461,
      "mandacik": 4462,
      "Mefistotedes": 4463,
      "klientami": 4464,
      "Psychooo": 4465,
      "JACK": 4466,
      "Survival": 4467,
      "Bądź": 4468,
      "gnój": 4469,
      "głęboko": 4470,
      "Wręczę": 4471,
      "mainstream": 4472,
      "Poderżnij": 4473,
      "100": 4474,
      "4run": 4475,
      "97": 4476,
      "Cy": 4477,
      "Deep": 4478,
      "FE": 4479,
      "Gorą": 4480,
      "GTW": 4481,
      "Ibi": 4482,
      "Krzy": 4483,
      "Laj": 4484,
      "Mło": 4485,
      "Ram": 4486,
      "Spek": 4487,
      "TZ": 4488,
      "Vi": 4489,
      "Vox": 4490,
      "Wro": 4491,
      "Was": 4492,
      "Wczoraj": 4493,
      "XXL": 4494,
      "bki": 4495,
      "dła": 4496,
      "dże": 4497,
      "ewiden": 4498,
      "fry": 4499,
      "gła": 4500,
      "gał": 4501,
      "ian": 4502,
      "idol": 4503,
      "ker": 4504,
      "kej": 4505,
      "llo": 4506,
      "lód": 4507,
      "otwo": 4508,
      "pam": 4509,
      "płu": 4510,
      "pri": 4511,
      "spie": 4512,
      "tną": 4513,
      "uo": 4514,
      "udo": 4515,
      "uwierzyć": 4516,
      "wci": 4517,
      "wca": 4518,
      "wśród": 4519,
      "wczoraj": 4520,
      "ya": 4521,
      "zrozumiesz": 4522,
      "zwłaszcza": 4523,
      "zrobienia": 4524,
      "Łoooo": 4525,
      "ński": 4526,
      "żół": 4527,
      "szie": 4528,
      "szkę": 4529,
      "szczą": 4530,
      "nadzie": 4531,
      "nienawi": 4532,
      "tować": 4533,
      "jedź": 4534,
      "chwy": 4535,
      "ranić": 4536,
      "dzaj": 4537,
      "poko": 4538,
      "pozo": 4539,
      "potencja": 4540,
      "typie": 4541,
      "tyłek": 4542,
      "rokiem": 4543,
      "rośli": 4544,
      "road": 4545,
      "wają": 4546,
      "kosz": 4547,
      "kopie": 4548,
      "kochają": 4549,
      "domach": 4550,
      "kaza": 4551,
      "kasy": 4552,
      "kapu": 4553,
      "wita": 4554,
      "wino": 4555,
      "wisi": 4556,
      "witam": 4557,
      "masło": 4558,
      "małe": 4559,
      "lika": 4560,
      "zasię": 4561,
      "zapierdalam": 4562,
      "paso": 4563,
      "pałą": 4564,
      "padek": 4565,
      "cił": 4566,
      "cipo": 4567,
      "kiwa": 4568,
      "cokolwiek": 4569,
      "wybiera": 4570,
      "wytłuma": 4571,
      "kumam": 4572,
      "kuren": 4573,
      "bal": 4574,
      "bana": 4575,
      "żera": 4576,
      "ciec": 4577,
      "mym": 4578,
      "dero": 4579,
      "wości": 4580,
      "loopa": 4581,
      "lodów": 4582,
      "przegra": 4583,
      "przeziom": 4584,
      "przestrze": 4585,
      "przekreśli": 4586,
      "bok": 4587,
      "boo": 4588,
      "boku": 4589,
      "pili": 4590,
      "Pozdrawiam": 4591,
      "rucha": 4592,
      "ruchy": 4593,
      "gadam": 4594,
      "grałem": 4595,
      "info": 4596,
      "....": 4597,
      "zek": 4598,
      "siedzę": 4599,
      "znany": 4600,
      "styli": 4601,
      "Wiel": 4602,
      "prawdzie": 4603,
      "duże": 4604,
      "dumnie": 4605,
      "challe": 4606,
      "Chuja": 4607,
      "szaf": 4608,
      "dźwięk": 4609,
      "Zazdro": 4610,
      "ścić": 4611,
      "metro": 4612,
      "Mało": 4613,
      "Magi": 4614,
      "każdą": 4615,
      "trzecia": 4616,
      "hajsem": 4617,
      "skan": 4618,
      "skar": 4619,
      "spodzie": 4620,
      "kontra": 4621,
      "Przekaż": 4622,
      "najbardziej": 4623,
      "czat": 4624,
      "musiał": 4625,
      "powro": 4626,
      "powtarz": 4627,
      "kręt": 4628,
      "krok": 4629,
      "dziećmi": 4630,
      "racji": 4631,
      "chujo": 4632,
      "obłę": 4633,
      "słońce": 4634,
      "pierdalasz": 4635,
      "kawałków": 4636,
      "kolek": 4637,
      "umiem": 4638,
      "Widzimy": 4639,
      "tekstach": 4640,
      "takiego": 4641,
      "gier": 4642,
      "Żyjemy": 4643,
      "plaży": 4644,
      "okej": 4645,
      "Lepiej": 4646,
      "drogie": 4647,
      "fortu": 4648,
      "pamięta": 4649,
      "kres": 4650,
      "kredy": 4651,
      "płać": 4652,
      "płacę": 4653,
      "palm": 4654,
      "zostaw": 4655,
      "nagrywamy": 4656,
      "Będziesz": 4657,
      "wróg": 4658,
      "wrócić": 4659,
      "Reali": 4660,
      "trapu": 4661,
      "zwycię": 4662,
      "przejmu": 4663,
      "Pierdol": 4664,
      "RRX": 4665,
      "śmiesz": 4666,
      "pomnij": 4667,
      "blok": 4668,
      "blokiem": 4669,
      "twojego": 4670,
      "melanżu": 4671,
      "bryki": 4672,
      "Czekam": 4673,
      "ulic": 4674,
      "ulicach": 4675,
      "starych": 4676,
      "Jordan": 4677,
      "plus": 4678,
      "Najpierw": 4679,
      "Myślałeś": 4680,
      "sztuk": 4681,
      "nazwę": 4682,
      "mixtej": 4683,
      "punk": 4684,
      "czarny": 4685,
      "Fajnie": 4686,
      "wchodzimy": 4687,
      "własne": 4688,
      "pokazać": 4689,
      "komercję": 4690,
      "minut": 4691,
      "dziewczynko": 4692,
      "Jutro": 4693,
      "Jungle": 4694,
      "przyjdzie": 4695,
      "klasyk": 4696,
      "upadły": 4697,
      "rozkmi": 4698,
      "Można": 4699,
      "mikrofonie": 4700,
      "ELO": 4701,
      "Chciał": 4702,
      "chłopcy": 4703,
      "zapomnie": 4704,
      "otwiera": 4705,
      "propos": 4706,
      "premie": 4707,
      "lachon": 4708,
      "pieniądzach": 4709,
      "Karma": 4710,
      "istotne": 4711,
      "wysoko": 4712,
      "zajawke": 4713,
      "ggy": 4714,
      "Vanilla": 4715,
      "Skończ": 4716,
      "przekroczenie": 4717,
      "takularny": 4718,
      "4runner": 4719,
      "Spektakularny": 4720,
      "BA": 4721,
      "Bali": 4722,
      "Dwie": 4723,
      "Don": 4724,
      "Fol": 4725,
      "Har": 4726,
      "Ich": 4727,
      "LP": 4728,
      "Ob": 4729,
      "Oczy": 4730,
      "PO": 4731,
      "Pio": 4732,
      "Pej": 4733,
      "Sami": 4734,
      "Wol": 4735,
      "apki": 4736,
      "bby": 4737,
      "bło": 4738,
      "bluz": 4739,
      "cto": 4740,
      "ckie": 4741,
      "drę": 4742,
      "dżu": 4743,
      "elem": 4744,
      "fri": 4745,
      "grzy": 4746,
      "iną": 4747,
      "klej": 4748,
      "knął": 4749,
      "nd": 4750,
      "oba": 4751,
      "ocze": 4752,
      "sre": 4753,
      "spodnie": 4754,
      "sób": 4755,
      "shoppa": 4756,
      "twór": 4757,
      "trój": 4758,
      "us": 4759,
      "ude": 4760,
      "układ": 4761,
      "wcy": 4762,
      "wstę": 4763,
      "wjechał": 4764,
      "ż": 4765,
      "zrozum": 4766,
      "Śpie": 4767,
      "żka": 4768,
      "еm": 4769,
      "szpan": 4770,
      "stałe": 4771,
      "naro": 4772,
      "nalnie": 4773,
      "napierdalam": 4774,
      "niejeden": 4775,
      "rady": 4776,
      "akra": 4777,
      "czoł": 4778,
      "pola": 4779,
      "pośli": 4780,
      "postać": 4781,
      "policz": 4782,
      "potrafię": 4783,
      "rowy": 4784,
      "nió": 4785,
      "komp": 4786,
      "dot": 4787,
      "dowiem": 4788,
      "laska": 4789,
      "wiście": 4790,
      "maty": 4791,
      "mani": 4792,
      "many": 4793,
      "maga": 4794,
      "lim": 4795,
      "miki": 4796,
      "wiej": 4797,
      "wieprz": 4798,
      "wiecznie": 4799,
      "wiedziałem": 4800,
      "danie": 4801,
      "zawo": 4802,
      "paru": 4803,
      "ciśnie": 4804,
      "kilo": 4805,
      "tanie": 4806,
      "tani": 4807,
      "nowo": 4808,
      "nocą": 4809,
      "byle": 4810,
      "byśmy": 4811,
      "wyk": 4812,
      "wyprze": 4813,
      "wybu": 4814,
      "wyplu": 4815,
      "bib": 4816,
      "tum": 4817,
      "take": 4818,
      "baby": 4819,
      "bawią": 4820,
      "bagno": 4821,
      "gon": 4822,
      "goń": 4823,
      "gorz": 4824,
      "nen": 4825,
      "czysta": 4826,
      "woła": 4827,
      "wozi": 4828,
      "stawiam": 4829,
      "body": 4830,
      "luk": 4831,
      "lumini": 4832,
      "bieg": 4833,
      "ping": 4834,
      "Powraca": 4835,
      "ejg": 4836,
      "ejgu": 4837,
      "sinu": 4838,
      "kier": 4839,
      "gała": 4840,
      "odtąd": 4841,
      "weso": 4842,
      "homo": 4843,
      "hopow": 4844,
      "Jana": 4845,
      "synu": 4846,
      "program": 4847,
      "sujesz": 4848,
      "setki": 4849,
      "Wiecz": 4850,
      "Wierz": 4851,
      "przypad": 4852,
      "cych": 4853,
      "dlaczego": 4854,
      "duma": 4855,
      "dupie": 4856,
      "dupą": 4857,
      "niach": 4858,
      "Cooooo": 4859,
      "Moko": 4860,
      "fiku": 4861,
      "puk": 4862,
      "Bom": 4863,
      "Mathe": 4864,
      "Pani": 4865,
      "feat": 4866,
      "twoi": 4867,
      "twoją": 4868,
      "Kolo": 4869,
      "która": 4870,
      "dii": 4871,
      "lami": 4872,
      "cjach": 4873,
      "Czę": 4874,
      "przodu": 4875,
      "Miałeś": 4876,
      "sent": 4877,
      "obser": 4878,
      "bezcze": 4879,
      "trą": 4880,
      "całym": 4881,
      "Bye": 4882,
      "Byle": 4883,
      "szczekać": 4884,
      "Kurwy": 4885,
      "zdarzy": 4886,
      "auta": 4887,
      "siądę": 4888,
      "Pienią": 4889,
      "skumasz": 4890,
      "opcji": 4891,
      "dziewczyną": 4892,
      "ranem": 4893,
      "Szpil": 4894,
      "Warszawy": 4895,
      "płacz": 4896,
      "wrogów": 4897,
      "zostaje": 4898,
      "wajcar": 4899,
      "piątek": 4900,
      "Pierwsze": 4901,
      "dwadzieścia": 4902,
      "wolność": 4903,
      "mogły": 4904,
      "rzucić": 4905,
      "rzucam": 4906,
      "Dawno": 4907,
      "bliżej": 4908,
      "Inni": 4909,
      "Inferno": 4910,
      "jednostajnie": 4911,
      "głupie": 4912,
      "hejt": 4913,
      "dziwne": 4914,
      "szczęścia": 4915,
      "nawij": 4916,
      "Star": 4917,
      "Włady": 4918,
      "złoto": 4919,
      "dzać": 4920,
      "yyy": 4921,
      "zakrę": 4922,
      "stronę": 4923,
      "Lato": 4924,
      "Lata": 4925,
      "anioł": 4926,
      "dłoni": 4927,
      "wzrok": 4928,
      "bloku": 4929,
      "kompu": 4930,
      "und": 4931,
      "under": 4932,
      "historie": 4933,
      "większe": 4934,
      "słuchasz": 4935,
      "skurwysyn": 4936,
      "Czego": 4937,
      "Musiałem": 4938,
      "koleżka": 4939,
      "żarty": 4940,
      "aaaaa": 4941,
      "pojazd": 4942,
      "instant": 4943,
      "mógłbym": 4944,
      "szukać": 4945,
      "szukasz": 4946,
      "wpaść": 4947,
      "zapomnij": 4948,
      "sweet": 4949,
      "wracają": 4950,
      "spokoj": 4951,
      "wkurwia": 4952,
      "zatrzymać": 4953,
      "dwudziestki": 4954,
      "Skurwysyny": 4955,
      "błęki": 4956,
      "sraczu": 4957,
      "Kasablanca": 4958,
      "strasznie": 4959,
      "żadnych": 4960,
      "Który": 4961,
      "down": 4962,
      "Klasy": 4963,
      "niedostępny": 4964,
      "kiepskiej": 4965,
      "szczurów": 4966,
      "oryginał": 4967,
      "zdrówki": 4968,
      "Bauns": 4969,
      "interes": 4970,
      "Nastuka": 4971,
      "Muzyka": 4972,
      "itatis": 4973,
      "Znajomi": 4974,
      "kasety": 4975,
      "FEAT": 4976,
      "challenge": 4977,
      "kredyt": 4978,
      "Follow": 4979,
      "luminium": 4980,
      "sinuso": 4981,
      "Szpilman": 4982,
      "',": 4983,
      "15": 4984,
      "23": 4985,
      "Ameri": 4986,
      "Aluminium": 4987,
      "Cen": 4988,
      "Ery": 4989,
      "Fran": 4990,
      "IP": 4991,
      "Klu": 4992,
      "Nas": 4993,
      "Okej": 4994,
      "SM": 4995,
      "She": 4996,
      "SCH": 4997,
      "Wpad": 4998,
      "Zwłaszcza": 4999
    },
    "merges": [
      [
        "i",
        "e"
      ],
      [
        "s",
        "z"
      ],
      [
        "s",
        "t"
      ],
      [
        "n",
        "a"
      ],
      [
        "n",
        "ie"
      ],
      [
        "t",
        "o"
      ],
      [
        "j",
        "e"
      ],
      [
        "c",
        "h"
      ],
      [
        "r",
        "a"
      ],
      [
        "a",
        "k"
      ],
      [
        "a",
        "m"
      ],
      [
        "d",
        "z"
      ],
      [
        "c",
        "z"
      ],
      [
        "i",
        "ę"
      ],
      [
        "r",
        "z"
      ],
      [
        "p",
        "o"
      ],
      [
        "l",
        "e"
      ],
      [
        "t",
        "e"
      ],
      [
        "t",
        "y"
      ],
      [
        "r",
        "o"
      ],
      [
        "n",
        "i"
      ],
      [
        "w",
        "a"
      ],
      [
        "k",
        "o"
      ],
      [
        "e",
        "m"
      ],
      [
        "d",
        "o"
      ],
      [
        "je",
        "st"
      ],
      [
        "l",
        "a"
      ],
      [
        "k",
        "a"
      ],
      [
        "w",
        "i"
      ],
      [
        "m",
        "a"
      ],
      [
        "l",
        "i"
      ],
      [
        "s",
        "ię"
      ],
      [
        "m",
        "i"
      ],
      [
        "w",
        "ie"
      ],
      [
        "dz",
        "ie"
      ],
      [
        "d",
        "a"
      ],
      [
        "rz",
        "e"
      ],
      [
        "j",
        "a"
      ],
      [
        "z",
        "a"
      ],
      [
        "p",
        "a"
      ],
      [
        "c",
        "i"
      ],
      [
        "k",
        "i"
      ],
      [
        "t",
        "a"
      ],
      [
        "n",
        "o"
      ],
      [
        "b",
        "y"
      ],
      [
        "c",
        "o"
      ],
      [
        "w",
        "y"
      ],
      [
        "ł",
        "o"
      ],
      [
        "j",
        "ak"
      ],
      [
        "b",
        "i"
      ],
      [
        "t",
        "u"
      ],
      [
        "m",
        "o"
      ],
      [
        "k",
        "u"
      ],
      [
        "ł",
        "a"
      ],
      [
        "t",
        "ak"
      ],
      [
        "b",
        "a"
      ],
      [
        "ż",
        "e"
      ],
      [
        "dz",
        "i"
      ],
      [
        "c",
        "ie"
      ],
      [
        "m",
        "y"
      ],
      [
        "g",
        "o"
      ],
      [
        "n",
        "y"
      ],
      [
        "d",
        "y"
      ],
      [
        "n",
        "e"
      ],
      [
        "c",
        "e"
      ],
      [
        "d",
        "e"
      ],
      [
        "r",
        "y"
      ],
      [
        "cz",
        "y"
      ],
      [
        "a",
        "ł"
      ],
      [
        "r",
        "e"
      ],
      [
        "w",
        "o"
      ],
      [
        "p",
        "ie"
      ],
      [
        "T",
        "o"
      ],
      [
        "m",
        "nie"
      ],
      [
        "rz",
        "y"
      ],
      [
        "l",
        "o"
      ],
      [
        "ó",
        "w"
      ],
      [
        "st",
        "a"
      ],
      [
        "p",
        "rze"
      ],
      [
        "m",
        "am"
      ],
      [
        "m",
        "ie"
      ],
      [
        "i",
        "o"
      ],
      [
        "b",
        "o"
      ],
      [
        "sz",
        "y"
      ],
      [
        "a",
        "j"
      ],
      [
        "l",
        "u"
      ],
      [
        "b",
        "ie"
      ],
      [
        "N",
        "ie"
      ],
      [
        "p",
        "i"
      ],
      [
        "e",
        "r"
      ],
      [
        "P",
        "o"
      ],
      [
        "e",
        "j"
      ],
      [
        "s",
        "i"
      ],
      [
        "k",
        "ie"
      ],
      [
        "ł",
        "y"
      ],
      [
        "J",
        "e"
      ],
      [
        "r",
        "u"
      ],
      [
        "e",
        "n"
      ],
      [
        "ra",
        "z"
      ],
      [
        "g",
        "a"
      ],
      [
        "m",
        "u"
      ],
      [
        "ch",
        "o"
      ],
      [
        "d",
        "ę"
      ],
      [
        "ty",
        "m"
      ],
      [
        "ż",
        "y"
      ],
      [
        "te",
        "n"
      ],
      [
        "e",
        "ś"
      ],
      [
        "ra",
        "p"
      ],
      [
        "p",
        "ra"
      ],
      [
        "n",
        "ą"
      ],
      [
        "u",
        "j"
      ],
      [
        "a",
        "s"
      ],
      [
        "ł",
        "em"
      ],
      [
        "o",
        "d"
      ],
      [
        "w",
        "e"
      ],
      [
        "T",
        "y"
      ],
      [
        "h",
        "o"
      ],
      [
        "cz",
        "e"
      ],
      [
        "J",
        "a"
      ],
      [
        "pie",
        "r"
      ],
      [
        "s",
        "y"
      ],
      [
        "T",
        "e"
      ],
      [
        "ku",
        "r"
      ],
      [
        "u",
        "ż"
      ],
      [
        "g",
        "ra"
      ],
      [
        "z",
        "io"
      ],
      [
        "b",
        "ę"
      ],
      [
        "sz",
        "e"
      ],
      [
        "i",
        "n"
      ],
      [
        "s",
        "o"
      ],
      [
        "ł",
        "u"
      ],
      [
        "wi",
        "a"
      ],
      [
        "j",
        "ą"
      ],
      [
        "a",
        "r"
      ],
      [
        ".",
        "."
      ],
      [
        "m",
        "ó"
      ],
      [
        "r",
        "ę"
      ],
      [
        "ro",
        "bi"
      ],
      [
        "c",
        "a"
      ],
      [
        "ś",
        "ć"
      ],
      [
        "z",
        "e"
      ],
      [
        "N",
        "a"
      ],
      [
        "i",
        "m"
      ],
      [
        "t",
        "am"
      ],
      [
        "zio",
        "m"
      ],
      [
        "p",
        "e"
      ],
      [
        "a",
        "n"
      ],
      [
        "b",
        "e"
      ],
      [
        "s",
        "ie"
      ],
      [
        "s",
        "am"
      ],
      [
        "j",
        "uż"
      ],
      [
        "i",
        "ch"
      ],
      [
        "w",
        "szy"
      ],
      [
        "p",
        "ro"
      ],
      [
        "s",
        "ą"
      ],
      [
        "o",
        "r"
      ],
      [
        "l",
        "ko"
      ],
      [
        "s",
        "u"
      ],
      [
        "z",
        "na"
      ],
      [
        "r",
        "ó"
      ],
      [
        "s",
        "e"
      ],
      [
        "st",
        "y"
      ],
      [
        "W",
        "ie"
      ],
      [
        "p",
        "rzy"
      ],
      [
        "cz",
        "as"
      ],
      [
        "b",
        "ię"
      ],
      [
        "c",
        "y"
      ],
      [
        "d",
        "la"
      ],
      [
        "pra",
        "w"
      ],
      [
        "k",
        "t"
      ],
      [
        "o",
        "ł"
      ],
      [
        "d",
        "u"
      ],
      [
        "Je",
        "st"
      ],
      [
        "te",
        "go"
      ],
      [
        "na",
        "s"
      ],
      [
        "le",
        "j"
      ],
      [
        "b",
        "ra"
      ],
      [
        "ni",
        "a"
      ],
      [
        "ro",
        "z"
      ],
      [
        "b",
        "u"
      ],
      [
        "s",
        "k"
      ],
      [
        "o",
        "n"
      ],
      [
        "ma",
        "sz"
      ],
      [
        "ch",
        "a"
      ],
      [
        "st",
        "o"
      ],
      [
        "J",
        "ak"
      ],
      [
        "k",
        "to"
      ],
      [
        "z",
        "y"
      ],
      [
        "wie",
        "sz"
      ],
      [
        "c",
        "ę"
      ],
      [
        "g",
        "i"
      ],
      [
        "j",
        "ę"
      ],
      [
        "dzi",
        "ś"
      ],
      [
        "C",
        "h"
      ],
      [
        "s",
        "a"
      ],
      [
        "wie",
        "m"
      ],
      [
        "sz",
        "a"
      ],
      [
        "e",
        "k"
      ],
      [
        "po",
        "d"
      ],
      [
        "d",
        "ź"
      ],
      [
        "T",
        "ak"
      ],
      [
        "Z",
        "a"
      ],
      [
        "wszy",
        "st"
      ],
      [
        "je",
        "sz"
      ],
      [
        "ty",
        "lko"
      ],
      [
        "C",
        "o"
      ],
      [
        "M",
        "o"
      ],
      [
        "h",
        "i"
      ],
      [
        "f",
        "i"
      ],
      [
        "te",
        "m"
      ],
      [
        "t",
        "rz"
      ],
      [
        "by",
        "ć"
      ],
      [
        "p",
        "u"
      ],
      [
        "bę",
        "dzie"
      ],
      [
        "t",
        "ra"
      ],
      [
        "w",
        "ó"
      ],
      [
        "Te",
        "de"
      ],
      [
        "kur",
        "wa"
      ],
      [
        "ś",
        "ci"
      ],
      [
        "jest",
        "em"
      ],
      [
        "h",
        "a"
      ],
      [
        "m",
        "e"
      ],
      [
        "u",
        "r"
      ],
      [
        "p",
        "y"
      ],
      [
        "E",
        "j"
      ],
      [
        "B",
        "o"
      ],
      [
        "w",
        "ię"
      ],
      [
        "mó",
        "wi"
      ],
      [
        "ty",
        "ch"
      ],
      [
        "am",
        "y"
      ],
      [
        "ni",
        "c"
      ],
      [
        "p",
        "ły"
      ],
      [
        "D",
        "o"
      ],
      [
        "cz",
        "ę"
      ],
      [
        "h",
        "aj"
      ],
      [
        "c",
        "ię"
      ],
      [
        "l",
        "ę"
      ],
      [
        "jest",
        "eś"
      ],
      [
        "d",
        "ą"
      ],
      [
        "o",
        "o"
      ],
      [
        "M",
        "a"
      ],
      [
        "ał",
        "y"
      ],
      [
        "D",
        "z"
      ],
      [
        "sz",
        "ę"
      ],
      [
        "te",
        "raz"
      ],
      [
        "s",
        "ko"
      ],
      [
        "ta",
        "j"
      ],
      [
        "i",
        "a"
      ],
      [
        "w",
        "u"
      ],
      [
        "N",
        "o"
      ],
      [
        "c",
        "ą"
      ],
      [
        "p",
        "ię"
      ],
      [
        "ka",
        "ż"
      ],
      [
        "wa",
        "ł"
      ],
      [
        "n",
        "g"
      ],
      [
        "g",
        "dzie"
      ],
      [
        "n",
        "ę"
      ],
      [
        "ał",
        "em"
      ],
      [
        "pier",
        "do"
      ],
      [
        "s",
        "ki"
      ],
      [
        "t",
        "ą"
      ],
      [
        "co",
        "ś"
      ],
      [
        "..",
        "."
      ],
      [
        "ś",
        "wia"
      ],
      [
        "a",
        "l"
      ],
      [
        "a",
        "le"
      ],
      [
        "R",
        "o"
      ],
      [
        "ro",
        "bię"
      ],
      [
        "t",
        "rze"
      ],
      [
        "la",
        "n"
      ],
      [
        "mo",
        "r"
      ],
      [
        "do",
        "b"
      ],
      [
        "cz",
        "u"
      ],
      [
        "m",
        "ną"
      ],
      [
        "dz",
        "ę"
      ],
      [
        "de",
        "n"
      ],
      [
        "so",
        "bie"
      ],
      [
        "ś",
        "nie"
      ],
      [
        "haj",
        "s"
      ],
      [
        "ni",
        "j"
      ],
      [
        "s",
        "ka"
      ],
      [
        "k",
        "ę"
      ],
      [
        "ś",
        "cie"
      ],
      [
        "mo",
        "że"
      ],
      [
        "M",
        "am"
      ],
      [
        "z",
        "o"
      ],
      [
        "s",
        "po"
      ],
      [
        "wa",
        "ć"
      ],
      [
        "je",
        "d"
      ],
      [
        "je",
        "ba"
      ],
      [
        "!",
        ")"
      ],
      [
        "w",
        "ła"
      ],
      [
        "z",
        "am"
      ],
      [
        "t",
        "ro"
      ],
      [
        "wa",
        "r"
      ],
      [
        "z",
        "d"
      ],
      [
        "w",
        "am"
      ],
      [
        "pa",
        "trz"
      ],
      [
        "my",
        "ś"
      ],
      [
        "W",
        "y"
      ],
      [
        "ą",
        "d"
      ],
      [
        "lo",
        "w"
      ],
      [
        "P",
        "a"
      ],
      [
        "ci",
        "ą"
      ],
      [
        "uj",
        "ę"
      ],
      [
        "wszyst",
        "ko"
      ],
      [
        "w",
        "sze"
      ],
      [
        "ko",
        "n"
      ],
      [
        "cho",
        "dzi"
      ],
      [
        "f",
        "e"
      ],
      [
        "mie",
        "ć"
      ],
      [
        "N",
        "i"
      ],
      [
        "mi",
        "a"
      ],
      [
        "no",
        "wu"
      ],
      [
        "R",
        "a"
      ],
      [
        "ch",
        "ce"
      ],
      [
        "r",
        "t"
      ],
      [
        "T",
        "a"
      ],
      [
        "na",
        "m"
      ],
      [
        "b",
        "ą"
      ],
      [
        "ci",
        "a"
      ],
      [
        "hi",
        "p"
      ],
      [
        "t",
        "wo"
      ],
      [
        "ch",
        "cę"
      ],
      [
        "kie",
        "dy"
      ],
      [
        "e",
        "e"
      ],
      [
        "K",
        "o"
      ],
      [
        "t",
        "ę"
      ],
      [
        "ży",
        "cie"
      ],
      [
        "pier",
        "da"
      ],
      [
        "jesz",
        "cze"
      ],
      [
        "P",
        "rze"
      ],
      [
        "n",
        "ów"
      ],
      [
        "r",
        "i"
      ],
      [
        "M",
        "ó"
      ],
      [
        "n",
        "u"
      ],
      [
        "p",
        "re"
      ],
      [
        "t",
        "rzy"
      ],
      [
        "na",
        "j"
      ],
      [
        "st",
        "u"
      ],
      [
        "j",
        "i"
      ],
      [
        "by",
        "ło"
      ],
      [
        "k",
        "ła"
      ],
      [
        "J",
        "oł"
      ],
      [
        "dzie",
        "ń"
      ],
      [
        "c",
        "k"
      ],
      [
        "d",
        "am"
      ],
      [
        "g",
        "ę"
      ],
      [
        "mam",
        "y"
      ],
      [
        "g",
        "ło"
      ],
      [
        "s",
        "łu"
      ],
      [
        "każ",
        "dy"
      ],
      [
        "m",
        "ów"
      ],
      [
        "Jest",
        "em"
      ],
      [
        "kt",
        "ó"
      ],
      [
        "g",
        "ry"
      ],
      [
        "ny",
        "ch"
      ],
      [
        "ni",
        "ch"
      ],
      [
        "d",
        "i"
      ],
      [
        "cz",
        "a"
      ],
      [
        "c",
        "u"
      ],
      [
        "świa",
        "t"
      ],
      [
        "g",
        "dy"
      ],
      [
        "K",
        "ie"
      ],
      [
        "la",
        "t"
      ],
      [
        "wó",
        "j"
      ],
      [
        "f",
        "o"
      ],
      [
        "Po",
        "l"
      ],
      [
        "A",
        "le"
      ],
      [
        "Ż",
        "e"
      ],
      [
        "l",
        "am"
      ],
      [
        "mo",
        "je"
      ],
      [
        "c",
        "ja"
      ],
      [
        "ho",
        "p"
      ],
      [
        "W",
        "szy"
      ],
      [
        "mu",
        "si"
      ],
      [
        "po",
        "w"
      ],
      [
        "ba",
        "r"
      ],
      [
        "l",
        "ą"
      ],
      [
        "K",
        "a"
      ],
      [
        "cie",
        "bie"
      ],
      [
        "mó",
        "j"
      ],
      [
        "te",
        "j"
      ],
      [
        "C",
        "z"
      ],
      [
        "dz",
        "ą"
      ],
      [
        "tu",
        "taj"
      ],
      [
        "Kie",
        "dy"
      ],
      [
        "p",
        "rz"
      ],
      [
        "ż",
        "a"
      ],
      [
        "sty",
        "l"
      ],
      [
        "ga",
        "r"
      ],
      [
        "le",
        "m"
      ],
      [
        "ny",
        "m"
      ],
      [
        "z",
        "nowu"
      ],
      [
        "am",
        "ię"
      ],
      [
        "Dz",
        "i"
      ],
      [
        "k",
        "rę"
      ],
      [
        "s",
        "ły"
      ],
      [
        "k",
        "ro"
      ],
      [
        "M",
        "i"
      ],
      [
        "s",
        "wo"
      ],
      [
        "s",
        "en"
      ],
      [
        "ł",
        "eś"
      ],
      [
        "dzie",
        "ć"
      ],
      [
        "da",
        "lej"
      ],
      [
        "p",
        "ę"
      ],
      [
        "że",
        "by"
      ],
      [
        "a",
        "a"
      ],
      [
        "po",
        "wie"
      ],
      [
        "T",
        "u"
      ],
      [
        "l",
        "kie"
      ],
      [
        "ki",
        "m"
      ],
      [
        "ma",
        "t"
      ],
      [
        "wa",
        "s"
      ],
      [
        "ra",
        "c"
      ],
      [
        "wła",
        "śnie"
      ],
      [
        "O",
        "d"
      ],
      [
        "d",
        "nie"
      ],
      [
        "u",
        "p"
      ],
      [
        "ni",
        "m"
      ],
      [
        "te",
        "ż"
      ],
      [
        "ch",
        "uj"
      ],
      [
        "prze",
        "z"
      ],
      [
        "bę",
        "dę"
      ],
      [
        "o",
        "b"
      ],
      [
        "da",
        "ć"
      ],
      [
        "be",
        "z"
      ],
      [
        "Mó",
        "wi"
      ],
      [
        "t",
        "r"
      ],
      [
        "s",
        "em"
      ],
      [
        "te",
        "r"
      ],
      [
        "f",
        "low"
      ],
      [
        "s",
        "er"
      ],
      [
        "cz",
        "ą"
      ],
      [
        "kie",
        "m"
      ],
      [
        "s",
        "ło"
      ],
      [
        "ch",
        "y"
      ],
      [
        "je",
        "den"
      ],
      [
        "prze",
        "d"
      ],
      [
        "mie",
        "j"
      ],
      [
        "pierda",
        "la"
      ],
      [
        "ch",
        "ło"
      ],
      [
        "k",
        "am"
      ],
      [
        "j",
        "oł"
      ],
      [
        "w",
        "no"
      ],
      [
        "nie",
        "j"
      ],
      [
        "ka",
        "wał"
      ],
      [
        "c",
        "ały"
      ],
      [
        "k",
        "ą"
      ],
      [
        "p",
        "ak"
      ],
      [
        "u",
        "m"
      ],
      [
        "z",
        "mie"
      ],
      [
        "ko",
        "ń"
      ],
      [
        "te",
        "dy"
      ],
      [
        "W",
        "J"
      ],
      [
        "ch",
        "am"
      ],
      [
        "ko",
        "le"
      ],
      [
        "f",
        "a"
      ],
      [
        "s",
        "ce"
      ],
      [
        "B",
        "y"
      ],
      [
        "p",
        "ó"
      ],
      [
        "K",
        "to"
      ],
      [
        "u",
        "mie"
      ],
      [
        "ma",
        "n"
      ],
      [
        "st",
        "ę"
      ],
      [
        "tak",
        "i"
      ],
      [
        "ni",
        "kt"
      ],
      [
        "f",
        "aj"
      ],
      [
        "i",
        "r"
      ],
      [
        "z",
        "robi"
      ],
      [
        "je",
        "j"
      ],
      [
        "by",
        "ł"
      ],
      [
        "ło",
        "wie"
      ],
      [
        "dob",
        "rze"
      ],
      [
        "W",
        "i"
      ],
      [
        "wa",
        "ż"
      ],
      [
        "w",
        "ą"
      ],
      [
        "ja",
        "dę"
      ],
      [
        "we",
        "ź"
      ],
      [
        "g",
        "ó"
      ],
      [
        "ł",
        "ą"
      ],
      [
        "te",
        "k"
      ],
      [
        "by",
        "m"
      ],
      [
        "r",
        "ą"
      ],
      [
        "z",
        "nów"
      ],
      [
        "ka",
        "ch"
      ],
      [
        "Mo",
        "że"
      ],
      [
        "l",
        "nie"
      ],
      [
        "we",
        "t"
      ],
      [
        "f",
        "u"
      ],
      [
        "bi",
        "t"
      ],
      [
        "C",
        "za"
      ],
      [
        "s",
        "cy"
      ],
      [
        "pa",
        "d"
      ],
      [
        "tak",
        "ie"
      ],
      [
        "ce",
        "j"
      ],
      [
        "L",
        "u"
      ],
      [
        "g",
        "ie"
      ],
      [
        "Ż",
        "y"
      ],
      [
        "st",
        "e"
      ],
      [
        "N",
        "WJ"
      ],
      [
        "m",
        "en"
      ],
      [
        "pe",
        "ł"
      ],
      [
        "ch",
        "aj"
      ],
      [
        "Wie",
        "lkie"
      ],
      [
        "mi",
        "ał"
      ],
      [
        "da",
        "j"
      ],
      [
        "Wszy",
        "st"
      ],
      [
        "a",
        "ch"
      ],
      [
        "o",
        "ni"
      ],
      [
        "sz",
        "cze"
      ],
      [
        "n",
        "t"
      ],
      [
        "p",
        "la"
      ],
      [
        "D",
        "la"
      ],
      [
        "K",
        "ur"
      ],
      [
        "z",
        "da"
      ],
      [
        "ta",
        "ch"
      ],
      [
        "T",
        "en"
      ],
      [
        "o",
        "l"
      ],
      [
        "sam",
        "o"
      ],
      [
        "ł",
        "e"
      ],
      [
        "g",
        "le"
      ],
      [
        "ś",
        "li"
      ],
      [
        "ch",
        "cą"
      ],
      [
        "ży",
        "ć"
      ],
      [
        "g",
        "ru"
      ],
      [
        "ni",
        "ą"
      ],
      [
        "d",
        "em"
      ],
      [
        "n",
        "ię"
      ],
      [
        "za",
        "wsze"
      ],
      [
        "sz",
        "ło"
      ],
      [
        "ziom",
        "ek"
      ],
      [
        "g",
        "u"
      ],
      [
        "ty",
        "le"
      ],
      [
        "pa",
        "r"
      ],
      [
        "dzi",
        "sz"
      ],
      [
        "cie",
        "ż"
      ],
      [
        "C",
        "i"
      ],
      [
        "c",
        "ji"
      ],
      [
        "sz",
        "am"
      ],
      [
        "ch",
        "ę"
      ],
      [
        "W",
        "A"
      ],
      [
        "a",
        "u"
      ],
      [
        "si",
        "ą"
      ],
      [
        "praw",
        "dę"
      ],
      [
        "w",
        "czy"
      ],
      [
        "ak",
        "a"
      ],
      [
        "Jest",
        "eś"
      ],
      [
        "C",
        "ho"
      ],
      [
        "d",
        "ru"
      ],
      [
        "mor",
        "do"
      ],
      [
        "cz",
        "łowie"
      ],
      [
        "dzie",
        "my"
      ],
      [
        "zam",
        "k"
      ],
      [
        "Ra",
        "p"
      ],
      [
        "P",
        "ie"
      ],
      [
        "ś",
        "my"
      ],
      [
        "ch",
        "wi"
      ],
      [
        "ma",
        "ją"
      ],
      [
        "pre",
        "z"
      ],
      [
        "pa",
        "n"
      ],
      [
        "Ma",
        "sz"
      ],
      [
        "Dzi",
        "ś"
      ],
      [
        "j",
        "u"
      ],
      [
        "s",
        "ku"
      ],
      [
        "lu",
        "bi"
      ],
      [
        "Wie",
        "sz"
      ],
      [
        "M",
        "y"
      ],
      [
        "P",
        "L"
      ],
      [
        "f",
        "on"
      ],
      [
        "o",
        "k"
      ],
      [
        "gra",
        "m"
      ],
      [
        "mówi",
        "ą"
      ],
      [
        "w",
        "tedy"
      ],
      [
        "W",
        "WA"
      ],
      [
        "o",
        "p"
      ],
      [
        "PL",
        "N"
      ],
      [
        "L",
        "e"
      ],
      [
        "d",
        "ro"
      ],
      [
        "lu",
        "dzi"
      ],
      [
        "stę",
        "p"
      ],
      [
        "T",
        "D"
      ],
      [
        "s",
        "s"
      ],
      [
        "sie",
        "bie"
      ],
      [
        "c",
        "em"
      ],
      [
        "ra",
        "m"
      ],
      [
        "le",
        "p"
      ],
      [
        "f",
        "or"
      ],
      [
        "ci",
        "u"
      ],
      [
        "W",
        "ar"
      ],
      [
        "l",
        "l"
      ],
      [
        "s",
        "praw"
      ],
      [
        "ż",
        "d"
      ],
      [
        "dz",
        "e"
      ],
      [
        "ni",
        "k"
      ],
      [
        "ko",
        "lej"
      ],
      [
        "mu",
        "zy"
      ],
      [
        "o",
        "ny"
      ],
      [
        "p",
        "amię"
      ],
      [
        "je",
        "b"
      ],
      [
        "pię",
        "k"
      ],
      [
        "v",
        "e"
      ],
      [
        "dz",
        "wo"
      ],
      [
        "może",
        "sz"
      ],
      [
        "m",
        "p"
      ],
      [
        "m",
        "er"
      ],
      [
        "ba",
        "cz"
      ],
      [
        "lu",
        "dzie"
      ],
      [
        "TD",
        "F"
      ],
      [
        "B",
        "e"
      ],
      [
        "po",
        "tem"
      ],
      [
        "mo",
        "ja"
      ],
      [
        "k",
        "re"
      ],
      [
        "wię",
        "cej"
      ],
      [
        "Wszyst",
        "ko"
      ],
      [
        "W",
        "ię"
      ],
      [
        "dzie",
        "wczy"
      ],
      [
        "st",
        "ra"
      ],
      [
        "C",
        "zy"
      ],
      [
        "no",
        "wy"
      ],
      [
        "si",
        "aj"
      ],
      [
        "je",
        "żd"
      ],
      [
        "ra",
        "n"
      ],
      [
        "wa",
        "l"
      ],
      [
        "ba",
        "n"
      ],
      [
        "sta",
        "r"
      ],
      [
        "ró",
        "b"
      ],
      [
        "S",
        "z"
      ],
      [
        "h",
        "e"
      ],
      [
        "k",
        "la"
      ],
      [
        "ra",
        "j"
      ],
      [
        "dz",
        "o"
      ],
      [
        "mo",
        "c"
      ],
      [
        "Mówi",
        "ą"
      ],
      [
        "k",
        "ów"
      ],
      [
        "sz",
        "cz"
      ],
      [
        "na",
        "wet"
      ],
      [
        "wie",
        "l"
      ],
      [
        "ał",
        "e"
      ],
      [
        "ną",
        "ć"
      ],
      [
        "M",
        "ich"
      ],
      [
        "s",
        "ł"
      ],
      [
        "am",
        "i"
      ],
      [
        "la",
        "ta"
      ],
      [
        "li",
        "śmy"
      ],
      [
        "mo",
        "gę"
      ],
      [
        "musi",
        "sz"
      ],
      [
        "chło",
        "pak"
      ],
      [
        "War",
        "sza"
      ],
      [
        "jed",
        "na"
      ],
      [
        "Ka",
        "ż"
      ],
      [
        "g",
        "ł"
      ],
      [
        "i",
        "s"
      ],
      [
        "p",
        "ła"
      ],
      [
        "zd",
        "ro"
      ],
      [
        "chce",
        "sz"
      ],
      [
        "P",
        "rzy"
      ],
      [
        "g",
        "e"
      ],
      [
        "o",
        "na"
      ],
      [
        "ra",
        "ca"
      ],
      [
        "ne",
        "j"
      ],
      [
        "Kur",
        "wa"
      ],
      [
        "sz",
        "ą"
      ],
      [
        "mów",
        "ię"
      ],
      [
        "ka",
        "z"
      ],
      [
        "pa",
        "l"
      ],
      [
        "si",
        "a"
      ],
      [
        "kur",
        "wy"
      ],
      [
        "Wie",
        "m"
      ],
      [
        "k",
        "ró"
      ],
      [
        "o",
        "u"
      ],
      [
        "t",
        "ru"
      ],
      [
        "W",
        "e"
      ],
      [
        "r",
        "em"
      ],
      [
        "bo",
        "m"
      ],
      [
        "Ni",
        "c"
      ],
      [
        "d",
        "ł"
      ],
      [
        "w",
        "ro"
      ],
      [
        "ni",
        "o"
      ],
      [
        "czy",
        "m"
      ],
      [
        "an",
        "s"
      ],
      [
        "t",
        "wój"
      ],
      [
        "uj",
        "ą"
      ],
      [
        "zo",
        "sta"
      ],
      [
        "M",
        "e"
      ],
      [
        "ni",
        "u"
      ],
      [
        "mi",
        "li"
      ],
      [
        "któ",
        "ry"
      ],
      [
        "na",
        "d"
      ],
      [
        "na",
        "gry"
      ],
      [
        "em",
        "y"
      ],
      [
        "cha",
        "ć"
      ],
      [
        "B",
        "ę"
      ],
      [
        "M",
        "u"
      ],
      [
        "ó",
        "ł"
      ],
      [
        "rz",
        "ę"
      ],
      [
        "robi",
        "ć"
      ],
      [
        "kto",
        "ś"
      ],
      [
        "c",
        "je"
      ],
      [
        "w",
        "ró"
      ],
      [
        "wa",
        "j"
      ],
      [
        "da",
        "ł"
      ],
      [
        "wię",
        "c"
      ],
      [
        "ch",
        "u"
      ],
      [
        "ta",
        "ń"
      ],
      [
        "Te",
        "raz"
      ],
      [
        "trze",
        "ba"
      ],
      [
        "R",
        "y"
      ],
      [
        "i",
        "t"
      ],
      [
        "sz",
        "u"
      ],
      [
        "la",
        "j"
      ],
      [
        "by",
        "ś"
      ],
      [
        "pro",
        "b"
      ],
      [
        "gdzie",
        "ś"
      ],
      [
        "jeba",
        "ne"
      ],
      [
        "?",
        ")"
      ],
      [
        "d",
        "no"
      ],
      [
        "z",
        "i"
      ],
      [
        "ni",
        "ć"
      ],
      [
        "i",
        "dzie"
      ],
      [
        "pi",
        "ą"
      ],
      [
        "su",
        "mie"
      ],
      [
        "li",
        "czy"
      ],
      [
        "de",
        "j"
      ],
      [
        "pie",
        "j"
      ],
      [
        "bę",
        "dą"
      ],
      [
        "Pie",
        "r"
      ],
      [
        "d",
        "wa"
      ],
      [
        "ś",
        "wie"
      ],
      [
        "mo",
        "ż"
      ],
      [
        "wo",
        "l"
      ],
      [
        "t",
        "ka"
      ],
      [
        "wi",
        "dzę"
      ],
      [
        "pa",
        "ła"
      ],
      [
        "mo",
        "g"
      ],
      [
        "O",
        "na"
      ],
      [
        "t",
        "ki"
      ],
      [
        "cze",
        "ka"
      ],
      [
        "g",
        "h"
      ],
      [
        "j",
        "am"
      ],
      [
        "k",
        "e"
      ],
      [
        "to",
        "bie"
      ],
      [
        "rz",
        "u"
      ],
      [
        "bar",
        "dzo"
      ],
      [
        "umie",
        "sz"
      ],
      [
        "k",
        "lu"
      ],
      [
        "wa",
        "li"
      ],
      [
        "dzi",
        "ał"
      ],
      [
        "cho",
        "ć"
      ],
      [
        "kon",
        "ce"
      ],
      [
        "G",
        "dzie"
      ],
      [
        "S",
        "am"
      ],
      [
        "wie",
        "dzieć"
      ],
      [
        "d",
        "io"
      ],
      [
        "w",
        "ę"
      ],
      [
        "w",
        "bi"
      ],
      [
        "na",
        "prawdę"
      ],
      [
        "to",
        "r"
      ],
      [
        "wi",
        "am"
      ],
      [
        "mi",
        "kro"
      ],
      [
        "ba",
        "ng"
      ],
      [
        "wo",
        "w"
      ],
      [
        "raz",
        "em"
      ],
      [
        "swo",
        "je"
      ],
      [
        "H",
        "i"
      ],
      [
        "r",
        "r"
      ],
      [
        "ni",
        "gdy"
      ],
      [
        "Ro",
        "bię"
      ],
      [
        "M",
        "or"
      ],
      [
        "cią",
        "ż"
      ],
      [
        "G",
        "u"
      ],
      [
        "jak",
        "i"
      ],
      [
        "J",
        "uż"
      ],
      [
        "R",
        "e"
      ],
      [
        "d",
        "ia"
      ],
      [
        "t",
        "ów"
      ],
      [
        "ch",
        "ci"
      ],
      [
        "cz",
        "uję"
      ],
      [
        "mi",
        "ło"
      ],
      [
        "im",
        "prez"
      ],
      [
        "C",
        "ię"
      ],
      [
        "D",
        "a"
      ],
      [
        "b",
        "la"
      ],
      [
        "n",
        "s"
      ],
      [
        "w",
        "er"
      ],
      [
        "zna",
        "m"
      ],
      [
        "Ży",
        "cie"
      ],
      [
        "D",
        "e"
      ],
      [
        "z",
        "ie"
      ],
      [
        "na",
        "sz"
      ],
      [
        "pię",
        "ć"
      ],
      [
        "mia",
        "sto"
      ],
      [
        "M",
        "ie"
      ],
      [
        "b",
        "li"
      ],
      [
        "I",
        "n"
      ],
      [
        "cz",
        "ej"
      ],
      [
        "le",
        "piej"
      ],
      [
        "pły",
        "nie"
      ],
      [
        "pierdo",
        "l"
      ],
      [
        "H",
        "a"
      ],
      [
        "s",
        "pa"
      ],
      [
        "dzie",
        "j"
      ],
      [
        "pier",
        "w"
      ],
      [
        "zna",
        "sz"
      ],
      [
        "Mo",
        "je"
      ],
      [
        "miej",
        "s"
      ],
      [
        "zamk",
        "nij"
      ],
      [
        "s",
        "ła"
      ],
      [
        "v",
        "i"
      ],
      [
        "na",
        "mi"
      ],
      [
        "ki",
        "ch"
      ],
      [
        "dzi",
        "ć"
      ],
      [
        "de",
        "r"
      ],
      [
        "człowie",
        "ku"
      ],
      [
        "u",
        "sta"
      ],
      [
        "Ty",
        "lko"
      ],
      [
        "?",
        "!"
      ],
      [
        "k",
        "li"
      ],
      [
        "praw",
        "da"
      ],
      [
        "jed",
        "no"
      ],
      [
        "g",
        "łu"
      ],
      [
        "Pa",
        "trz"
      ],
      [
        "kawał",
        "ek"
      ],
      [
        "i",
        "ść"
      ],
      [
        "o",
        "t"
      ],
      [
        "sz",
        "ma"
      ],
      [
        "sz",
        "czy"
      ],
      [
        "sta",
        "ć"
      ],
      [
        "Ch",
        "ce"
      ],
      [
        "t",
        "ny"
      ],
      [
        "w",
        "ciąż"
      ],
      [
        "na",
        "gra"
      ],
      [
        "mnie",
        "j"
      ],
      [
        "pierdo",
        "li"
      ],
      [
        "kiedy",
        "ś"
      ],
      [
        "kła",
        "dnie"
      ],
      [
        "Wię",
        "c"
      ],
      [
        "Każ",
        "dy"
      ],
      [
        "kurwy",
        "sy"
      ],
      [
        "We",
        "ź"
      ],
      [
        "C",
        "ie"
      ],
      [
        "P",
        "i"
      ],
      [
        "S",
        "ie"
      ],
      [
        "d",
        "łu"
      ],
      [
        "f",
        "ur"
      ],
      [
        "h",
        "ej"
      ],
      [
        "dz",
        "y"
      ],
      [
        "da",
        "je"
      ],
      [
        "no",
        "c"
      ],
      [
        "dzi",
        "w"
      ],
      [
        "aj",
        "ą"
      ],
      [
        "u",
        "u"
      ],
      [
        "z",
        "ę"
      ],
      [
        "sz",
        "czę"
      ],
      [
        "a",
        "t"
      ],
      [
        "k",
        "s"
      ],
      [
        "t",
        "rap"
      ],
      [
        "ł",
        "ę"
      ],
      [
        "ż",
        "ę"
      ],
      [
        "na",
        "r"
      ],
      [
        "na",
        "wi"
      ],
      [
        "rze",
        "czy"
      ],
      [
        "mu",
        "szę"
      ],
      [
        "łu",
        "łu"
      ],
      [
        "Dz",
        "ie"
      ],
      [
        "C",
        "ały"
      ],
      [
        "S",
        "ta"
      ],
      [
        "f",
        "ak"
      ],
      [
        "g",
        "wia"
      ],
      [
        "m",
        "ię"
      ],
      [
        "m",
        "ło"
      ],
      [
        "ó",
        "d"
      ],
      [
        "to",
        "bą"
      ],
      [
        "je",
        "bi"
      ],
      [
        "te",
        "mat"
      ],
      [
        "pa",
        "rę"
      ],
      [
        "ga",
        "d"
      ],
      [
        "wszy",
        "scy"
      ],
      [
        "Ro",
        "z"
      ],
      [
        "p",
        "er"
      ],
      [
        "ś",
        "ro"
      ],
      [
        "by",
        "łem"
      ],
      [
        "słu",
        "chaj"
      ],
      [
        "W",
        "ła"
      ],
      [
        "b",
        "ej"
      ],
      [
        "t",
        "nie"
      ],
      [
        "w",
        "ej"
      ],
      [
        "z",
        "wy"
      ],
      [
        "prze",
        "j"
      ],
      [
        "cho",
        "dzę"
      ],
      [
        "cze",
        "go"
      ],
      [
        "cią",
        "gle"
      ],
      [
        "chy",
        "ba"
      ],
      [
        "i",
        "le"
      ],
      [
        "t",
        "i"
      ],
      [
        "st",
        "er"
      ],
      [
        "to",
        "czę"
      ],
      [
        "cz",
        "nie"
      ],
      [
        "po",
        "l"
      ],
      [
        "lo",
        "ne"
      ],
      [
        "pi",
        "z"
      ],
      [
        "raz",
        "y"
      ],
      [
        "Że",
        "by"
      ],
      [
        "T",
        "wo"
      ],
      [
        "st",
        "wo"
      ],
      [
        "prze",
        "cież"
      ],
      [
        "ną",
        "ł"
      ],
      [
        "myś",
        "li"
      ],
      [
        "rac",
        "am"
      ],
      [
        "ó",
        "ż"
      ],
      [
        "st",
        "or"
      ],
      [
        "re",
        "e"
      ],
      [
        "lo",
        "t"
      ],
      [
        "pi",
        "s"
      ],
      [
        "bra",
        "ć"
      ],
      [
        "sto",
        "p"
      ],
      [
        "d",
        "na"
      ],
      [
        "p",
        "li"
      ],
      [
        "z",
        "ło"
      ],
      [
        "na",
        "ch"
      ],
      [
        "dz",
        "a"
      ],
      [
        "te",
        "le"
      ],
      [
        "ro",
        "k"
      ],
      [
        "mi",
        "ałem"
      ],
      [
        "pa",
        "da"
      ],
      [
        "pe",
        "w"
      ],
      [
        "Pier",
        "do"
      ],
      [
        "l",
        "li"
      ],
      [
        "z",
        "ja"
      ],
      [
        "ó",
        "r"
      ],
      [
        "da",
        "wno"
      ],
      [
        "ce",
        "l"
      ],
      [
        "Hi",
        "p"
      ],
      [
        "S",
        "u"
      ],
      [
        "g",
        "ów"
      ],
      [
        "m",
        "ę"
      ],
      [
        "wa",
        "łem"
      ],
      [
        "ho",
        "w"
      ],
      [
        "y",
        "y"
      ],
      [
        "z",
        "ak"
      ],
      [
        "da",
        "r"
      ],
      [
        "dzi",
        "siaj"
      ],
      [
        "re",
        "s"
      ],
      [
        "G",
        "i"
      ],
      [
        "S",
        "ir"
      ],
      [
        "g",
        "rze"
      ],
      [
        "st",
        "ro"
      ],
      [
        "waż",
        "ne"
      ],
      [
        "P",
        "amię"
      ],
      [
        "a",
        "li"
      ],
      [
        "s",
        "kie"
      ],
      [
        "li",
        "cz"
      ],
      [
        "Je",
        "szcze"
      ],
      [
        "fi",
        "l"
      ],
      [
        "któ",
        "re"
      ],
      [
        "faj",
        "nie"
      ],
      [
        "jedna",
        "k"
      ],
      [
        "d",
        "ra"
      ],
      [
        "f",
        "ej"
      ],
      [
        "g",
        "lą"
      ],
      [
        "m",
        "ak"
      ],
      [
        "ko",
        "go"
      ],
      [
        "ba",
        "ć"
      ],
      [
        "ne",
        "k"
      ],
      [
        "trzy",
        "ma"
      ],
      [
        "R",
        "R"
      ],
      [
        "p",
        "io"
      ],
      [
        "Cho",
        "ć"
      ],
      [
        "K",
        "u"
      ],
      [
        "st",
        "wa"
      ],
      [
        "ne",
        "r"
      ],
      [
        "lo",
        "ny"
      ],
      [
        "pe",
        "wno"
      ],
      [
        "me",
        "lan"
      ],
      [
        "pierdala",
        "j"
      ],
      [
        "L",
        "a"
      ],
      [
        "M",
        "C"
      ],
      [
        "P",
        "ro"
      ],
      [
        "a",
        "ni"
      ],
      [
        "d",
        "ło"
      ],
      [
        "z",
        "wro"
      ],
      [
        "ś",
        "mie"
      ],
      [
        "mu",
        "ś"
      ],
      [
        "będzie",
        "sz"
      ],
      [
        "oo",
        "oo"
      ],
      [
        "j",
        "o"
      ],
      [
        "s",
        "prze"
      ],
      [
        "dzie",
        "ci"
      ],
      [
        "tak",
        "ich"
      ],
      [
        "bar",
        "dziej"
      ],
      [
        "w",
        "z"
      ],
      [
        "sz",
        "ans"
      ],
      [
        "na",
        "stęp"
      ],
      [
        "nie",
        "c"
      ],
      [
        "ra",
        "czej"
      ],
      [
        "po",
        "m"
      ],
      [
        "sam",
        "i"
      ],
      [
        "fe",
        "le"
      ],
      [
        "kolej",
        "ny"
      ],
      [
        "o",
        "czy"
      ],
      [
        "s",
        "ę"
      ],
      [
        "je",
        "ź"
      ],
      [
        "dz",
        "ię"
      ],
      [
        "ka",
        "r"
      ],
      [
        "ma",
        "r"
      ],
      [
        "ja",
        "j"
      ],
      [
        "mo",
        "ich"
      ],
      [
        "tak",
        "a"
      ],
      [
        "dzi",
        "a"
      ],
      [
        "re",
        "sz"
      ],
      [
        "Pol",
        "ska"
      ],
      [
        "star",
        "czy"
      ],
      [
        "śro",
        "d"
      ],
      [
        "H",
        "aj"
      ],
      [
        "b",
        "ro"
      ],
      [
        "b",
        "lo"
      ],
      [
        "d",
        "ni"
      ],
      [
        "ka",
        "j"
      ],
      [
        "wy",
        "j"
      ],
      [
        "mo",
        "ne"
      ],
      [
        "ła",
        "p"
      ],
      [
        "ży",
        "cia"
      ],
      [
        "rap",
        "u"
      ],
      [
        "zmie",
        "ni"
      ],
      [
        "prob",
        "lem"
      ],
      [
        "c",
        "ję"
      ],
      [
        "g",
        "im"
      ],
      [
        "ci",
        "ć"
      ],
      [
        "robi",
        "ą"
      ],
      [
        "mówi",
        "ć"
      ],
      [
        "mikro",
        "fon"
      ],
      [
        "chci",
        "ał"
      ],
      [
        "Chce",
        "sz"
      ],
      [
        "Z",
        "io"
      ],
      [
        "o",
        "bo"
      ],
      [
        "st",
        "rz"
      ],
      [
        "na",
        "na"
      ],
      [
        "je",
        "dzie"
      ],
      [
        "je",
        "ee"
      ],
      [
        "mi",
        "na"
      ],
      [
        "mie",
        "ście"
      ],
      [
        "sze",
        "dł"
      ],
      [
        "czas",
        "em"
      ],
      [
        "wszyst",
        "kie"
      ],
      [
        "tra",
        "fi"
      ],
      [
        "sko",
        "ń"
      ],
      [
        "krę",
        "ć"
      ],
      [
        "fur",
        "ą"
      ],
      [
        "B",
        "u"
      ],
      [
        "o",
        "m"
      ],
      [
        "mi",
        "ja"
      ],
      [
        "ja",
        "s"
      ],
      [
        "ku",
        "mp"
      ],
      [
        "pie",
        "prz"
      ],
      [
        "bo",
        "n"
      ],
      [
        "Po",
        "d"
      ],
      [
        "Ro",
        "bi"
      ],
      [
        "PLN",
        "Y"
      ],
      [
        "0",
        "0"
      ],
      [
        "c",
        "ał"
      ],
      [
        "o",
        "gar"
      ],
      [
        "p",
        "ą"
      ],
      [
        "s",
        "p"
      ],
      [
        "s",
        "wój"
      ],
      [
        "z",
        "u"
      ],
      [
        "z",
        "er"
      ],
      [
        "sz",
        "ej"
      ],
      [
        "ni",
        "ż"
      ],
      [
        "wi",
        "ć"
      ],
      [
        "ma",
        "j"
      ],
      [
        "wie",
        "le"
      ],
      [
        "re",
        "k"
      ],
      [
        "re",
        "n"
      ],
      [
        "bo",
        "li"
      ],
      [
        "wia",
        "t"
      ],
      [
        "cia",
        "ż"
      ],
      [
        "Cza",
        "sem"
      ],
      [
        "M",
        "amy"
      ],
      [
        "P",
        "ra"
      ],
      [
        "S",
        "ą"
      ],
      [
        "k",
        "ąd"
      ],
      [
        "s",
        "pra"
      ],
      [
        "ra",
        "ch"
      ],
      [
        "do",
        "r"
      ],
      [
        "czu",
        "ć"
      ],
      [
        "G",
        "ra"
      ],
      [
        "d",
        "uż"
      ],
      [
        "l",
        "ie"
      ],
      [
        "v",
        "er"
      ],
      [
        "nie",
        "sz"
      ],
      [
        "ko",
        "m"
      ],
      [
        "ma",
        "ło"
      ],
      [
        "wszyst",
        "kich"
      ],
      [
        "Wszy",
        "scy"
      ],
      [
        "T",
        "rzy"
      ],
      [
        "Z",
        "nowu"
      ],
      [
        "b",
        "en"
      ],
      [
        "i",
        "x"
      ],
      [
        "st",
        "ąd"
      ],
      [
        "le",
        "ci"
      ],
      [
        "za",
        "ja"
      ],
      [
        "mo",
        "men"
      ],
      [
        "czy",
        "ć"
      ],
      [
        "bu",
        "m"
      ],
      [
        "py",
        "ta"
      ],
      [
        "two",
        "je"
      ],
      [
        ")",
        ","
      ],
      [
        "A",
        "ir"
      ],
      [
        "B",
        "i"
      ],
      [
        "d",
        "ne"
      ],
      [
        "k",
        "ce"
      ],
      [
        "u",
        "n"
      ],
      [
        "w",
        "raca"
      ],
      [
        "ł",
        "ak"
      ],
      [
        "to",
        "n"
      ],
      [
        "ki",
        "l"
      ],
      [
        "ta",
        "n"
      ],
      [
        "dzi",
        "ałem"
      ],
      [
        "pra",
        "szam"
      ],
      [
        "Ty",
        "le"
      ],
      [
        "so",
        "bą"
      ],
      [
        "ca",
        "ła"
      ],
      [
        "ze",
        "ro"
      ],
      [
        "jesteś",
        "my"
      ],
      [
        "Cza",
        "s"
      ],
      [
        "c",
        "ka"
      ],
      [
        "c",
        "ci"
      ],
      [
        "d",
        "łem"
      ],
      [
        "Ś",
        "wiat"
      ],
      [
        "na",
        "le"
      ],
      [
        "za",
        "czy"
      ],
      [
        "by",
        "ła"
      ],
      [
        "Po",
        "tem"
      ],
      [
        "gra",
        "ć"
      ],
      [
        "in",
        "g"
      ],
      [
        "sam",
        "e"
      ],
      [
        "hi",
        "stor"
      ],
      [
        "cią",
        "g"
      ],
      [
        "Prze",
        "cież"
      ],
      [
        "gło",
        "wie"
      ],
      [
        "Może",
        "sz"
      ],
      [
        "au",
        "to"
      ],
      [
        "F",
        "i"
      ],
      [
        "T",
        "rze"
      ],
      [
        "o",
        "ne"
      ],
      [
        "o",
        "sta"
      ],
      [
        "t",
        "ne"
      ],
      [
        "w",
        "ki"
      ],
      [
        "mi",
        "ni"
      ],
      [
        "pa",
        "li"
      ],
      [
        "ta",
        "l"
      ],
      [
        "że",
        "j"
      ],
      [
        "prze",
        "kaz"
      ],
      [
        "pro",
        "stu"
      ],
      [
        "zna",
        "j"
      ],
      [
        "roz",
        "umiesz"
      ],
      [
        "wię",
        "k"
      ],
      [
        "moż",
        "na"
      ],
      [
        "Cie",
        "bie"
      ],
      [
        "melan",
        "ż"
      ],
      [
        "b",
        "ry"
      ],
      [
        "n",
        "em"
      ],
      [
        "le",
        "cą"
      ],
      [
        "do",
        "bra"
      ],
      [
        "ści",
        "a"
      ],
      [
        "szę",
        "dzie"
      ],
      [
        "pierda",
        "lam"
      ],
      [
        "słu",
        "cha"
      ],
      [
        "lubi",
        "ą"
      ],
      [
        "duż",
        "o"
      ],
      [
        "D",
        "wa"
      ],
      [
        "o",
        "gó"
      ],
      [
        "s",
        "kurwysy"
      ],
      [
        "st",
        "rze"
      ],
      [
        "le",
        "ć"
      ],
      [
        "wie",
        "rzy"
      ],
      [
        "lan",
        "s"
      ],
      [
        "spraw",
        "dź"
      ],
      [
        "muzy",
        "ka"
      ],
      [
        "dzwo",
        "ń"
      ],
      [
        "P",
        "e"
      ],
      [
        "n",
        "ka"
      ],
      [
        "ś",
        "pie"
      ],
      [
        "ni",
        "sko"
      ],
      [
        "wie",
        "dzą"
      ],
      [
        "no",
        "n"
      ],
      [
        "wy",
        "szło"
      ],
      [
        "bi",
        "ty"
      ],
      [
        "be",
        "e"
      ],
      [
        "praw",
        "dzi"
      ],
      [
        "Ko",
        "lej"
      ],
      [
        "Be",
        "z"
      ],
      [
        "Gu",
        "cci"
      ],
      [
        "?",
        "\""
      ],
      [
        "k",
        "no"
      ],
      [
        "ó",
        "j"
      ],
      [
        "wi",
        "dzisz"
      ],
      [
        "wie",
        "rz"
      ],
      [
        "pa",
        "trzy"
      ],
      [
        "wy",
        "ch"
      ],
      [
        "Ja",
        "dę"
      ],
      [
        "su",
        "kce"
      ],
      [
        "Ch",
        "cę"
      ],
      [
        "Ni",
        "kt"
      ],
      [
        "dru",
        "gi"
      ],
      [
        "Mor",
        "do"
      ],
      [
        "C",
        "ze"
      ],
      [
        "i",
        "dę"
      ],
      [
        "k",
        "ra"
      ],
      [
        "o",
        "rę"
      ],
      [
        "u",
        "li"
      ],
      [
        "x",
        "2"
      ],
      [
        "ł",
        "ek"
      ],
      [
        "st",
        "em"
      ],
      [
        "je",
        "my"
      ],
      [
        "da",
        "n"
      ],
      [
        "czy",
        "ł"
      ],
      [
        "du",
        "py"
      ],
      [
        "dob",
        "re"
      ],
      [
        "jeba",
        "ć"
      ],
      [
        "patrz",
        "ę"
      ],
      [
        "Cz",
        "u"
      ],
      [
        "par",
        "ty"
      ],
      [
        "jeżd",
        "ż"
      ],
      [
        "D",
        "is"
      ],
      [
        "E",
        "sen"
      ],
      [
        "G",
        "dy"
      ],
      [
        "S",
        "to"
      ],
      [
        "c",
        "ki"
      ],
      [
        "pa",
        "ł"
      ],
      [
        "bi",
        "orę"
      ],
      [
        "Je",
        "dziemy"
      ],
      [
        "pier",
        "wszy"
      ],
      [
        "robi",
        "sz"
      ],
      [
        "robi",
        "my"
      ],
      [
        "ró",
        "t"
      ],
      [
        "sk",
        "ąd"
      ],
      [
        "tro",
        "chę"
      ],
      [
        "sło",
        "wa"
      ],
      [
        "B",
        "M"
      ],
      [
        "b",
        "le"
      ],
      [
        "t",
        "łu"
      ],
      [
        "po",
        "wiem"
      ],
      [
        "te",
        "ry"
      ],
      [
        "wi",
        "dzieć"
      ],
      [
        "sta",
        "ry"
      ],
      [
        "dob",
        "ry"
      ],
      [
        "L",
        "i"
      ],
      [
        "e",
        "ki"
      ],
      [
        "o",
        "sie"
      ],
      [
        "r",
        "ów"
      ],
      [
        "y",
        "o"
      ],
      [
        "ł",
        "aka"
      ],
      [
        "ra",
        "bi"
      ],
      [
        "cz",
        "ny"
      ],
      [
        "ko",
        "r"
      ],
      [
        "do",
        "mo"
      ],
      [
        "jak",
        "o"
      ],
      [
        "tu",
        "r"
      ],
      [
        "czy",
        "sz"
      ],
      [
        "mam",
        "a"
      ],
      [
        "myś",
        "l"
      ],
      [
        "D",
        "J"
      ],
      [
        "J",
        "or"
      ],
      [
        "M",
        "er"
      ],
      [
        "d",
        "rz"
      ],
      [
        "p",
        "lu"
      ],
      [
        "s",
        "mak"
      ],
      [
        "ł",
        "am"
      ],
      [
        "wi",
        "ą"
      ],
      [
        "no",
        "r"
      ],
      [
        "mo",
        "im"
      ],
      [
        "ry",
        "j"
      ],
      [
        "ał",
        "eś"
      ],
      [
        "Je",
        "den"
      ],
      [
        "ży",
        "ciu"
      ],
      [
        "myś",
        "lę"
      ],
      [
        "zrobi",
        "ć"
      ],
      [
        "glą",
        "da"
      ],
      [
        "N",
        "aj"
      ],
      [
        "p",
        "s"
      ],
      [
        "s",
        "mu"
      ],
      [
        "wi",
        "dać"
      ],
      [
        "ma",
        "rt"
      ],
      [
        "ja",
        "ra"
      ],
      [
        "no",
        "ść"
      ],
      [
        "szy",
        "ch"
      ],
      [
        "pły",
        "ta"
      ],
      [
        "świa",
        "ta"
      ],
      [
        "My",
        "ś"
      ],
      [
        "mili",
        "on"
      ],
      [
        "konce",
        "r"
      ],
      [
        "B",
        "a"
      ],
      [
        "I",
        "le"
      ],
      [
        "Z",
        "e"
      ],
      [
        "f",
        "lo"
      ],
      [
        "t",
        "ni"
      ],
      [
        "sz",
        "tu"
      ],
      [
        "cz",
        "ki"
      ],
      [
        "dzie",
        "je"
      ],
      [
        "ta",
        "r"
      ],
      [
        "no",
        "we"
      ],
      [
        "wy",
        "jebane"
      ],
      [
        "go",
        "ni"
      ],
      [
        "lu",
        "b"
      ],
      [
        "pi",
        "sz"
      ],
      [
        "so",
        "r"
      ],
      [
        "mia",
        "ło"
      ],
      [
        "każdy",
        "m"
      ],
      [
        "kawał",
        "ki"
      ],
      [
        "Mu",
        "si"
      ],
      [
        "bee",
        "f"
      ],
      [
        "k",
        "ry"
      ],
      [
        "s",
        "h"
      ],
      [
        "y",
        "ba"
      ],
      [
        "na",
        "ł"
      ],
      [
        "cz",
        "eś"
      ],
      [
        "do",
        "m"
      ],
      [
        "ła",
        "ś"
      ],
      [
        "sty",
        "le"
      ],
      [
        "bu",
        "t"
      ],
      [
        "Do",
        "bra"
      ],
      [
        "fo",
        "l"
      ],
      [
        "pó",
        "j"
      ],
      [
        "chwi",
        "lę"
      ],
      [
        "bej",
        "bi"
      ],
      [
        "Z",
        "am"
      ],
      [
        "g",
        "ro"
      ],
      [
        "k",
        "rzy"
      ],
      [
        "r",
        "in"
      ],
      [
        "le",
        "cz"
      ],
      [
        "ni",
        "i"
      ],
      [
        "wa",
        "n"
      ],
      [
        "do",
        "ść"
      ],
      [
        "wi",
        "n"
      ],
      [
        "bie",
        "ra"
      ],
      [
        "ho",
        "o"
      ],
      [
        "rę",
        "ce"
      ],
      [
        "pod",
        "nie"
      ],
      [
        "czu",
        "jesz"
      ],
      [
        "Pol",
        "ski"
      ],
      [
        "jaki",
        "ś"
      ],
      [
        "C",
        "a"
      ],
      [
        "i",
        "i"
      ],
      [
        "v",
        "ol"
      ],
      [
        "w",
        "s"
      ],
      [
        "na",
        "z"
      ],
      [
        "ra",
        "pie"
      ],
      [
        "cz",
        "ku"
      ],
      [
        "mi",
        "x"
      ],
      [
        "jak",
        "by"
      ],
      [
        "de",
        "s"
      ],
      [
        "lo",
        "ok"
      ],
      [
        "lu",
        "bię"
      ],
      [
        "Je",
        "śli"
      ],
      [
        "ca",
        "ch"
      ],
      [
        "sie",
        "dem"
      ],
      [
        "du",
        "p"
      ],
      [
        "wó",
        "ch"
      ],
      [
        "No",
        "wy"
      ],
      [
        "Pa",
        "ła"
      ],
      [
        "bą",
        "dź"
      ],
      [
        "kła",
        "d"
      ],
      [
        "tr",
        "wa"
      ],
      [
        "Mich",
        "u"
      ],
      [
        "pierw",
        "szej"
      ],
      [
        "dłu",
        "go"
      ],
      [
        "Wła",
        "śnie"
      ],
      [
        "fej",
        "m"
      ],
      [
        "c",
        "am"
      ],
      [
        "c",
        "ałe"
      ],
      [
        "f",
        "ree"
      ],
      [
        "i",
        "dą"
      ],
      [
        "l",
        "le"
      ],
      [
        "p",
        "sy"
      ],
      [
        "ć",
        "pa"
      ],
      [
        "te",
        "s"
      ],
      [
        "wi",
        "o"
      ],
      [
        "wy",
        "da"
      ],
      [
        "ce",
        "k"
      ],
      [
        "pi",
        "sa"
      ],
      [
        "Po",
        "wie"
      ],
      [
        "Ja",
        "cek"
      ],
      [
        "ar",
        "d"
      ],
      [
        "pu",
        "n"
      ],
      [
        "lep",
        "sze"
      ],
      [
        "pierdoli",
        "ć"
      ],
      [
        "mone",
        "y"
      ],
      [
        "zaczy",
        "na"
      ],
      [
        "K",
        "im"
      ],
      [
        "w",
        "ka"
      ],
      [
        "Ł",
        "a"
      ],
      [
        "sz",
        "to"
      ],
      [
        "sz",
        "ka"
      ],
      [
        "cz",
        "o"
      ],
      [
        "ma",
        "ch"
      ],
      [
        "ziom",
        "e"
      ],
      [
        "wszyst",
        "kim"
      ],
      [
        "koń",
        "cu"
      ],
      [
        "Lu",
        "bię"
      ],
      [
        "wiel",
        "ki"
      ],
      [
        "P",
        "an"
      ],
      [
        "T",
        "an"
      ],
      [
        "h",
        "an"
      ],
      [
        "k",
        "le"
      ],
      [
        "l",
        "f"
      ],
      [
        "o",
        "h"
      ],
      [
        "t",
        "wa"
      ],
      [
        "w",
        "nie"
      ],
      [
        "sz",
        "cza"
      ],
      [
        "cz",
        "ar"
      ],
      [
        "ni",
        "mi"
      ],
      [
        "tu",
        "a"
      ],
      [
        "dzi",
        "my"
      ],
      [
        "cie",
        "m"
      ],
      [
        "szy",
        "sz"
      ],
      [
        "zio",
        "muś"
      ],
      [
        "sam",
        "a"
      ],
      [
        "ró",
        "ż"
      ],
      [
        "Co",
        "ś"
      ],
      [
        "Kiedy",
        "ś"
      ],
      [
        "kole",
        "ż"
      ],
      [
        "S",
        "za"
      ],
      [
        "b",
        "rze"
      ],
      [
        "b",
        "er"
      ],
      [
        "i",
        "dź"
      ],
      [
        "l",
        "la"
      ],
      [
        "x",
        "y"
      ],
      [
        "je",
        "m"
      ],
      [
        "do",
        "kładnie"
      ],
      [
        "pa",
        "ch"
      ],
      [
        "ba",
        "j"
      ],
      [
        "ziom",
        "ki"
      ],
      [
        "mor",
        "dę"
      ],
      [
        "krę",
        "ci"
      ],
      [
        "zmie",
        "nia"
      ],
      [
        "Nic",
        "ki"
      ],
      [
        "d",
        "wu"
      ],
      [
        "d",
        "wóch"
      ],
      [
        "p",
        "t"
      ],
      [
        "ch",
        "e"
      ],
      [
        "da",
        "ch"
      ],
      [
        "pie",
        "nią"
      ],
      [
        "mie",
        "li"
      ],
      [
        "cho",
        "dź"
      ],
      [
        "kur",
        "wi"
      ],
      [
        "gra",
        "ł"
      ],
      [
        "zd",
        "ra"
      ],
      [
        "pięk",
        "ne"
      ],
      [
        "gwia",
        "z"
      ],
      [
        "how",
        "gh"
      ],
      [
        "Haj",
        "s"
      ],
      [
        "ogó",
        "le"
      ],
      [
        "Kolej",
        "ny"
      ],
      [
        "F",
        "io"
      ],
      [
        "M",
        "ar"
      ],
      [
        "f",
        "an"
      ],
      [
        "l",
        "ki"
      ],
      [
        "p",
        "lan"
      ],
      [
        "t",
        "ce"
      ],
      [
        "u",
        "t"
      ],
      [
        "u",
        "cie"
      ],
      [
        "v",
        "vol"
      ],
      [
        "by",
        "ły"
      ],
      [
        "ne",
        "go"
      ],
      [
        "lu",
        "z"
      ],
      [
        "cha",
        "nie"
      ],
      [
        "me",
        "lo"
      ],
      [
        "pierdo",
        "lę"
      ],
      [
        "Mó",
        "j"
      ],
      [
        "Dzi",
        "siaj"
      ],
      [
        "pamię",
        "tam"
      ],
      [
        "miło",
        "ść"
      ],
      [
        "łak",
        "ów"
      ],
      [
        "Trze",
        "ba"
      ],
      [
        "vvol",
        "no"
      ],
      [
        "g",
        "ą"
      ],
      [
        "s",
        "io"
      ],
      [
        "ó",
        "b"
      ],
      [
        "to",
        "wa"
      ],
      [
        "je",
        "ch"
      ],
      [
        "rz",
        "a"
      ],
      [
        "po",
        "ma"
      ],
      [
        "po",
        "czą"
      ],
      [
        "ko",
        "niec"
      ],
      [
        "ga",
        "n"
      ],
      [
        "kto",
        "p"
      ],
      [
        "Lu",
        "dzie"
      ],
      [
        "myśli",
        "sz"
      ],
      [
        "drz",
        "wi"
      ],
      [
        "M",
        "ów"
      ],
      [
        "T",
        "O"
      ],
      [
        "d",
        "nia"
      ],
      [
        "s",
        "na"
      ],
      [
        "ź",
        "le"
      ],
      [
        "le",
        "k"
      ],
      [
        "wie",
        "cz"
      ],
      [
        "da",
        "l"
      ],
      [
        "mo",
        "ją"
      ],
      [
        "sta",
        "ń"
      ],
      [
        "Je",
        "b"
      ],
      [
        "in",
        "nych"
      ],
      [
        "pro",
        "szę"
      ],
      [
        "mor",
        "da"
      ],
      [
        "two",
        "ja"
      ],
      [
        "prz",
        "emy"
      ],
      [
        "koń",
        "czy"
      ],
      [
        "prez",
        "en"
      ],
      [
        "konce",
        "rt"
      ],
      [
        "fol",
        "low"
      ],
      [
        "Tan",
        "ktop"
      ],
      [
        "F",
        "aj"
      ],
      [
        "S",
        "e"
      ],
      [
        "W",
        "racam"
      ],
      [
        "g",
        "en"
      ],
      [
        "p",
        "ry"
      ],
      [
        "y",
        "ou"
      ],
      [
        "ż",
        "ar"
      ],
      [
        "st",
        "ą"
      ],
      [
        "je",
        "go"
      ],
      [
        "ty",
        "l"
      ],
      [
        "ko",
        "ty"
      ],
      [
        "ma",
        "l"
      ],
      [
        "ta",
        "sz"
      ],
      [
        "no",
        "si"
      ],
      [
        "jak",
        "ie"
      ],
      [
        "ca",
        "le"
      ],
      [
        "be",
        "cel"
      ],
      [
        "su",
        "je"
      ],
      [
        "ró",
        "d"
      ],
      [
        "spo",
        "tka"
      ],
      [
        "pow",
        "raca"
      ],
      [
        "miej",
        "sce"
      ],
      [
        "gru",
        "bo"
      ],
      [
        "moc",
        "no"
      ],
      [
        "wró",
        "ci"
      ],
      [
        "pol",
        "ski"
      ],
      [
        "ben",
        "g"
      ],
      [
        "Esen",
        "de"
      ],
      [
        "sor",
        "ry"
      ],
      [
        "\"",
        ","
      ],
      [
        "W",
        "tedy"
      ],
      [
        "a",
        "ż"
      ],
      [
        "d",
        "rin"
      ],
      [
        "u",
        "da"
      ],
      [
        "z",
        "łe"
      ],
      [
        "nie",
        "ch"
      ],
      [
        "je",
        "dziemy"
      ],
      [
        "ch",
        "ł"
      ],
      [
        "le",
        "n"
      ],
      [
        "dzie",
        "sz"
      ],
      [
        "mo",
        "i"
      ],
      [
        "rzy",
        "d"
      ],
      [
        "sta",
        "j"
      ],
      [
        "szy",
        "b"
      ],
      [
        "Ja",
        "zda"
      ],
      [
        "Na",
        "wet"
      ],
      [
        "czas",
        "u"
      ],
      [
        "Ch",
        "yba"
      ],
      [
        "Mam",
        "a"
      ],
      [
        "Warsza",
        "wa"
      ],
      [
        "C",
        "as"
      ],
      [
        "K",
        "i"
      ],
      [
        "P",
        "ię"
      ],
      [
        "c",
        "ów"
      ],
      [
        "d",
        "re"
      ],
      [
        "p",
        "en"
      ],
      [
        "w",
        "amy"
      ],
      [
        "le",
        "cę"
      ],
      [
        "te",
        "ma"
      ],
      [
        "la",
        "ł"
      ],
      [
        "za",
        "jebi"
      ],
      [
        "ci",
        "py"
      ],
      [
        "jak",
        "a"
      ],
      [
        "de",
        "k"
      ],
      [
        "be",
        "l"
      ],
      [
        "pro",
        "wa"
      ],
      [
        "sk",
        "re"
      ],
      [
        "pły",
        "tę"
      ],
      [
        "haj",
        "su"
      ],
      [
        "Cz",
        "uję"
      ],
      [
        "aa",
        "aa"
      ],
      [
        "chłopak",
        "i"
      ],
      [
        "H",
        "op"
      ],
      [
        "S",
        "ię"
      ],
      [
        "S",
        "ły"
      ],
      [
        "T",
        "am"
      ],
      [
        "W",
        "o"
      ],
      [
        "Z",
        "o"
      ],
      [
        "f",
        "ty"
      ],
      [
        "f",
        "ar"
      ],
      [
        "g",
        "in"
      ],
      [
        "s",
        "ja"
      ],
      [
        "s",
        "ów"
      ],
      [
        "t",
        "na"
      ],
      [
        "w",
        "chodzi"
      ],
      [
        "nie",
        "ść"
      ],
      [
        "to",
        "m"
      ],
      [
        "po",
        "z"
      ],
      [
        "po",
        "ja"
      ],
      [
        "po",
        "zdro"
      ],
      [
        "le",
        "t"
      ],
      [
        "te",
        "l"
      ],
      [
        "te",
        "re"
      ],
      [
        "la",
        "r"
      ],
      [
        "wo",
        "li"
      ],
      [
        "kur",
        "wo"
      ],
      [
        "in",
        "sta"
      ],
      [
        "mó",
        "gł"
      ],
      [
        "bra",
        "k"
      ],
      [
        "Tak",
        "i"
      ],
      [
        "Ra",
        "z"
      ],
      [
        "sły",
        "chać"
      ],
      [
        "człowie",
        "k"
      ],
      [
        "sł",
        "ów"
      ],
      [
        "Me",
        "s"
      ],
      [
        "bang",
        "la"
      ],
      [
        "Pamię",
        "tam"
      ],
      [
        "dzieci",
        "ak"
      ],
      [
        "G",
        "o"
      ],
      [
        "H",
        "ej"
      ],
      [
        "K",
        "e"
      ],
      [
        "O",
        "h"
      ],
      [
        "T",
        "V"
      ],
      [
        "T",
        "wój"
      ],
      [
        "e",
        "w"
      ],
      [
        "k",
        "ół"
      ],
      [
        "s",
        "cho"
      ],
      [
        "t",
        "he"
      ],
      [
        "nie",
        "m"
      ],
      [
        "ro",
        "dzi"
      ],
      [
        "li",
        "nii"
      ],
      [
        "za",
        "raz"
      ],
      [
        "ku",
        "si"
      ],
      [
        "ła",
        "t"
      ],
      [
        "rap",
        "e"
      ],
      [
        "rap",
        "er"
      ],
      [
        "pier",
        "wsze"
      ],
      [
        "Do",
        "kładnie"
      ],
      [
        "Ni",
        "ke"
      ],
      [
        "powie",
        "dz"
      ],
      [
        "Dla",
        "tego"
      ],
      [
        "Bę",
        "dę"
      ],
      [
        "zi",
        "ą"
      ],
      [
        "Su",
        "ki"
      ],
      [
        "jeź",
        "dzi"
      ],
      [
        "obo",
        "k"
      ],
      [
        "Pra",
        "w"
      ],
      [
        "jeżdż",
        "am"
      ],
      [
        "p",
        "ki"
      ],
      [
        "s",
        "wa"
      ],
      [
        "t",
        "ku"
      ],
      [
        "cz",
        "aj"
      ],
      [
        "po",
        "li"
      ],
      [
        "le",
        "c"
      ],
      [
        "ni",
        "am"
      ],
      [
        "wa",
        "sz"
      ],
      [
        "wie",
        "k"
      ],
      [
        "no",
        "wa"
      ],
      [
        "mam",
        "ro"
      ],
      [
        "bie",
        "rz"
      ],
      [
        "wó",
        "r"
      ],
      [
        "al",
        "bum"
      ],
      [
        "wła",
        "s"
      ],
      [
        "pó",
        "ł"
      ],
      [
        "szu",
        "ka"
      ],
      [
        "dzię",
        "ki"
      ],
      [
        "Fi",
        "fty"
      ],
      [
        "ziome",
        "czku"
      ],
      [
        "k",
        "ło"
      ],
      [
        "o",
        "bra"
      ],
      [
        "z",
        "m"
      ],
      [
        "po",
        "r"
      ],
      [
        "po",
        "ka"
      ],
      [
        "ty",
        "ka"
      ],
      [
        "ko",
        "l"
      ],
      [
        "do",
        "sko"
      ],
      [
        "ja",
        "z"
      ],
      [
        "sta",
        "w"
      ],
      [
        "sze",
        "dłem"
      ],
      [
        "pe",
        "k"
      ],
      [
        "roz",
        "umie"
      ],
      [
        "sk",
        "ła"
      ],
      [
        "Za",
        "wsze"
      ],
      [
        "Do",
        "brze"
      ],
      [
        "ia",
        "st"
      ],
      [
        "zo",
        "ba"
      ],
      [
        "prob",
        "le"
      ],
      [
        "poma",
        "łu"
      ],
      [
        "a",
        "d"
      ],
      [
        "g",
        "am"
      ],
      [
        "k",
        "wi"
      ],
      [
        "k",
        "nij"
      ],
      [
        "w",
        "pa"
      ],
      [
        "w",
        "szędzie"
      ],
      [
        "z",
        "robię"
      ],
      [
        "cz",
        "ują"
      ],
      [
        "li",
        "pa"
      ],
      [
        "li",
        "fe"
      ],
      [
        "wie",
        "lkie"
      ],
      [
        "pa",
        "ten"
      ],
      [
        "bi",
        "je"
      ],
      [
        "sta",
        "n"
      ],
      [
        "cho",
        "dzą"
      ],
      [
        "cho",
        "ciaż"
      ],
      [
        "in",
        "ne"
      ],
      [
        "roz",
        "u"
      ],
      [
        "Ch",
        "wi"
      ],
      [
        "pu",
        "m"
      ],
      [
        "cza",
        "ch"
      ],
      [
        "łą",
        "cz"
      ],
      [
        "mog",
        "ą"
      ],
      [
        "środ",
        "ku"
      ],
      [
        "Zio",
        "m"
      ],
      [
        "free",
        "style"
      ],
      [
        "Cas",
        "io"
      ],
      [
        "b",
        "lan"
      ],
      [
        "f",
        "le"
      ],
      [
        "f",
        "la"
      ],
      [
        "f",
        "er"
      ],
      [
        "o",
        "s"
      ],
      [
        "o",
        "ko"
      ],
      [
        "p",
        "ło"
      ],
      [
        "st",
        "ał"
      ],
      [
        "cz",
        "i"
      ],
      [
        "po",
        "wy"
      ],
      [
        "ni",
        "ka"
      ],
      [
        "wie",
        "rzę"
      ],
      [
        "pa",
        "ny"
      ],
      [
        "bi",
        "ć"
      ],
      [
        "ku",
        "ma"
      ],
      [
        "ry",
        "t"
      ],
      [
        "pi",
        "a"
      ],
      [
        "bra",
        "n"
      ],
      [
        "Ch",
        "ar"
      ],
      [
        "sa",
        "ch"
      ],
      [
        "Tak",
        "ie"
      ],
      [
        "Bo",
        "ry"
      ],
      [
        "nu",
        "mer"
      ],
      [
        "di",
        "s"
      ],
      [
        "Pol",
        "sce"
      ],
      [
        "jeżd",
        "ża"
      ],
      [
        "Powie",
        "dz"
      ],
      [
        "Mów",
        "ię"
      ],
      [
        "N",
        "I"
      ],
      [
        "S",
        "ło"
      ],
      [
        "T",
        "E"
      ],
      [
        "b",
        "am"
      ],
      [
        "d",
        "ół"
      ],
      [
        "f",
        "y"
      ],
      [
        "o",
        "pa"
      ],
      [
        "w",
        "pad"
      ],
      [
        "po",
        "rz"
      ],
      [
        "po",
        "sy"
      ],
      [
        "do",
        "mu"
      ],
      [
        "dzie",
        "c"
      ],
      [
        "ta",
        "ta"
      ],
      [
        "by",
        "e"
      ],
      [
        "ku",
        "re"
      ],
      [
        "wia",
        "domo"
      ],
      [
        "sto",
        "i"
      ],
      [
        "pły",
        "ty"
      ],
      [
        "patrz",
        "ą"
      ],
      [
        "Prze",
        "z"
      ],
      [
        "swo",
        "im"
      ],
      [
        "wbi",
        "jam"
      ],
      [
        "Mie",
        "ć"
      ],
      [
        "zdra",
        "wiam"
      ],
      [
        "C",
        "ałe"
      ],
      [
        "P",
        "ar"
      ],
      [
        "T",
        "ru"
      ],
      [
        "h",
        "y"
      ],
      [
        "k",
        "sy"
      ],
      [
        "l",
        "ak"
      ],
      [
        "n",
        "ku"
      ],
      [
        "s",
        "ch"
      ],
      [
        "w",
        "ho"
      ],
      [
        "po",
        "za"
      ],
      [
        "te",
        "ra"
      ],
      [
        "wa",
        "ny"
      ],
      [
        "ko",
        "mer"
      ],
      [
        "do",
        "n"
      ],
      [
        "la",
        "ć"
      ],
      [
        "wi",
        "z"
      ],
      [
        "mi",
        "nu"
      ],
      [
        "dzie",
        "n"
      ],
      [
        "da",
        "ję"
      ],
      [
        "za",
        "pom"
      ],
      [
        "ku",
        "masz"
      ],
      [
        "ła",
        "ch"
      ],
      [
        "dzi",
        "up"
      ],
      [
        "go",
        "ści"
      ],
      [
        "ry",
        "my"
      ],
      [
        "as",
        "a"
      ],
      [
        "cze",
        "nie"
      ],
      [
        "Te",
        "go"
      ],
      [
        "in",
        "ny"
      ],
      [
        "py",
        "taj"
      ],
      [
        "oo",
        "o"
      ],
      [
        "Dz",
        "ię"
      ],
      [
        "war",
        "to"
      ],
      [
        "Ko",
        "le"
      ],
      [
        "Lu",
        "bi"
      ],
      [
        "pamię",
        "taj"
      ],
      [
        "dziewczy",
        "n"
      ],
      [
        "ban",
        "kno"
      ],
      [
        "fil",
        "m"
      ],
      [
        "Bu",
        "h"
      ],
      [
        "osie",
        "d"
      ],
      [
        "jako",
        "ś"
      ],
      [
        "Char",
        "lie"
      ],
      [
        "B",
        "en"
      ],
      [
        "D",
        "aj"
      ],
      [
        "D",
        "up"
      ],
      [
        "O",
        "n"
      ],
      [
        "S",
        "y"
      ],
      [
        "S",
        "łu"
      ],
      [
        "b",
        "ru"
      ],
      [
        "l",
        "ne"
      ],
      [
        "s",
        "pi"
      ],
      [
        "t",
        "le"
      ],
      [
        "z",
        "g"
      ],
      [
        "z",
        "do"
      ],
      [
        "st",
        "re"
      ],
      [
        "na",
        "sze"
      ],
      [
        "je",
        "bię"
      ],
      [
        "po",
        "ra"
      ],
      [
        "po",
        "trze"
      ],
      [
        "em",
        "o"
      ],
      [
        "ka",
        "ra"
      ],
      [
        "za",
        "rabi"
      ],
      [
        "ta",
        "cy"
      ],
      [
        "by",
        "wa"
      ],
      [
        "wy",
        "gląda"
      ],
      [
        "bi",
        "jaj"
      ],
      [
        "ła",
        "s"
      ],
      [
        "go",
        "r"
      ],
      [
        "pi",
        "szę"
      ],
      [
        "sy",
        "tua"
      ],
      [
        "se",
        "k"
      ],
      [
        "ha",
        "t"
      ],
      [
        "cię",
        "ż"
      ],
      [
        "tą",
        "d"
      ],
      [
        "al",
        "le"
      ],
      [
        "zo",
        "bacz"
      ],
      [
        "!)",
        ","
      ],
      [
        "rac",
        "je"
      ],
      [
        "ser",
        "cem"
      ],
      [
        "sło",
        "wo"
      ],
      [
        "gie",
        "ń"
      ],
      [
        "chu",
        "ja"
      ],
      [
        "klu",
        "b"
      ],
      [
        "vi",
        "be"
      ],
      [
        "łułu",
        "łułu"
      ],
      [
        "sukce",
        "s"
      ],
      [
        "kol",
        "wiek"
      ],
      [
        "D",
        "ru"
      ],
      [
        "k",
        "sz"
      ],
      [
        "s",
        "ji"
      ],
      [
        "z",
        "ne"
      ],
      [
        "to",
        "war"
      ],
      [
        "ch",
        "no"
      ],
      [
        "ko",
        "la"
      ],
      [
        "la",
        "łem"
      ],
      [
        "ka",
        "rt"
      ],
      [
        "za",
        "le"
      ],
      [
        "ku",
        "m"
      ],
      [
        "pi",
        "sze"
      ],
      [
        "ho",
        "ł"
      ],
      [
        "Te",
        "du"
      ],
      [
        "kur",
        "de"
      ],
      [
        "gra",
        "j"
      ],
      [
        "so",
        "n"
      ],
      [
        "ca",
        "n"
      ],
      [
        "żeby",
        "ś"
      ],
      [
        "Wi",
        "dzisz"
      ],
      [
        "dro",
        "dze"
      ],
      [
        "Sam",
        "o"
      ],
      [
        "strz",
        "ał"
      ],
      [
        "jeee",
        "bać"
      ],
      [
        "kil",
        "ka"
      ],
      [
        "pt",
        "n"
      ],
      [
        "Ke",
        "ptn"
      ],
      [
        "who",
        "op"
      ],
      [
        "R",
        "em"
      ],
      [
        "Z",
        "nam"
      ],
      [
        "d",
        "ny"
      ],
      [
        "i",
        "na"
      ],
      [
        "l",
        "y"
      ],
      [
        "l",
        "ny"
      ],
      [
        "o",
        "gień"
      ],
      [
        "s",
        "we"
      ],
      [
        "t",
        "ry"
      ],
      [
        "u",
        "ra"
      ],
      [
        "ł",
        "óż"
      ],
      [
        "na",
        "zy"
      ],
      [
        "je",
        "bie"
      ],
      [
        "cz",
        "er"
      ],
      [
        "po",
        "zosta"
      ],
      [
        "wie",
        "lu"
      ],
      [
        "pa",
        "ra"
      ],
      [
        "ki",
        "pi"
      ],
      [
        "ta",
        "lnie"
      ],
      [
        "cie",
        "ć"
      ],
      [
        "go",
        "dzi"
      ],
      [
        "go",
        "rą"
      ],
      [
        "ry",
        "fi"
      ],
      [
        "prze",
        "de"
      ],
      [
        "bie",
        "rze"
      ],
      [
        "ga",
        "ch"
      ],
      [
        "pra",
        "wie"
      ],
      [
        "wia",
        "tr"
      ],
      [
        "su",
        "per"
      ],
      [
        "przy",
        "ja"
      ],
      [
        "bra",
        "ł"
      ],
      [
        "Ch",
        "uj"
      ],
      [
        "Dz",
        "wo"
      ],
      [
        "sko",
        "ro"
      ],
      [
        "trze",
        "ć"
      ],
      [
        "mor",
        "dy"
      ],
      [
        "jeba",
        "ny"
      ],
      [
        "sły",
        "szę"
      ],
      [
        "swo",
        "ją"
      ],
      [
        "Jesteś",
        "my"
      ],
      [
        "nar",
        "koty"
      ],
      [
        "pli",
        "k"
      ],
      [
        "sprze",
        "da"
      ],
      [
        "Trzy",
        "ha"
      ],
      [
        "Czu",
        "jesz"
      ],
      [
        "BM",
        "W"
      ],
      [
        "I",
        "dę"
      ],
      [
        "J",
        "u"
      ],
      [
        "d",
        "wie"
      ],
      [
        "d",
        "ri"
      ],
      [
        "e",
        "l"
      ],
      [
        "k",
        "raj"
      ],
      [
        "n",
        "ki"
      ],
      [
        "w",
        "rac"
      ],
      [
        "ś",
        "wi"
      ],
      [
        "ie",
        "m"
      ],
      [
        "em",
        "u"
      ],
      [
        "do",
        "l"
      ],
      [
        "ma",
        "rze"
      ],
      [
        "pa",
        "ć"
      ],
      [
        "pa",
        "ń"
      ],
      [
        "no",
        "wie"
      ],
      [
        "wy",
        "bacz"
      ],
      [
        "ku",
        "l"
      ],
      [
        "ba",
        "nie"
      ],
      [
        "sta",
        "ło"
      ],
      [
        "prze",
        "r"
      ],
      [
        "sty",
        "lu"
      ],
      [
        "dź",
        "my"
      ],
      [
        "jed",
        "nym"
      ],
      [
        "fe",
        "l"
      ],
      [
        "stu",
        "dia"
      ],
      [
        "di",
        "u"
      ],
      [
        "Pol",
        "sko"
      ],
      [
        "sły",
        "sz"
      ],
      [
        "przed",
        "tem"
      ],
      [
        "zmie",
        "nić"
      ],
      [
        "rą",
        "k"
      ],
      [
        "chaj",
        "ą"
      ],
      [
        "ju",
        "tro"
      ],
      [
        "szma",
        "tą"
      ],
      [
        "mię",
        "dzy"
      ],
      [
        "zja",
        "dam"
      ],
      [
        "Gi",
        "bon"
      ],
      [
        "kump",
        "li"
      ],
      [
        "cał",
        "ą"
      ],
      [
        "szto",
        "s"
      ],
      [
        "chł",
        "ód"
      ],
      [
        "Zo",
        "bacz"
      ],
      [
        "K",
        "on"
      ],
      [
        "S",
        "kąd"
      ],
      [
        "W",
        "a"
      ],
      [
        "d",
        "ów"
      ],
      [
        "e",
        "t"
      ],
      [
        "j",
        "my"
      ],
      [
        "z",
        "ły"
      ],
      [
        "st",
        "ów"
      ],
      [
        "le",
        "je"
      ],
      [
        "do",
        "ra"
      ],
      [
        "sta",
        "je"
      ],
      [
        "lu",
        "ja"
      ],
      [
        "Nie",
        "ch"
      ],
      [
        "Ja",
        "cka"
      ],
      [
        "gra",
        "sz"
      ],
      [
        "tam",
        "to"
      ],
      [
        "su",
        "ki"
      ],
      [
        "zna",
        "ć"
      ],
      [
        "przy",
        "j"
      ],
      [
        "praw",
        "dy"
      ],
      [
        "spo",
        "ko"
      ],
      [
        "kon",
        "tro"
      ],
      [
        "Że",
        "lipa"
      ],
      [
        "sen",
        "s"
      ],
      [
        "Kto",
        "ś"
      ],
      [
        "łe",
        "b"
      ],
      [
        "dzwo",
        "ni"
      ],
      [
        "dziewczy",
        "ny"
      ],
      [
        "kla",
        "sy"
      ],
      [
        "sł",
        "ek"
      ],
      [
        "kró",
        "l"
      ],
      [
        "moż",
        "emy"
      ],
      [
        "zwy",
        "k"
      ],
      [
        "Gi",
        "b"
      ],
      [
        "Mer",
        "ce"
      ],
      [
        "skre",
        "tny"
      ],
      [
        "dosko",
        "nale"
      ],
      [
        "Dup",
        "ą"
      ],
      [
        "S",
        "up"
      ],
      [
        "e",
        "a"
      ],
      [
        "f",
        "am"
      ],
      [
        "g",
        "na"
      ],
      [
        "h",
        "as"
      ],
      [
        "u",
        "pad"
      ],
      [
        "z",
        "ga"
      ],
      [
        "ż",
        "u"
      ],
      [
        "sz",
        "ko"
      ],
      [
        "st",
        "ry"
      ],
      [
        "po",
        "rt"
      ],
      [
        "le",
        "ga"
      ],
      [
        "ty",
        "p"
      ],
      [
        "ko",
        "lo"
      ],
      [
        "wy",
        "m"
      ],
      [
        "ku",
        "je"
      ],
      [
        "cho",
        "dy"
      ],
      [
        "we",
        "st"
      ],
      [
        "sy",
        "f"
      ],
      [
        "so",
        "nar"
      ],
      [
        "ją",
        "c"
      ],
      [
        "Na",
        "gry"
      ],
      [
        "tam",
        "i"
      ],
      [
        "ziom",
        "ków"
      ],
      [
        "pro",
        "ste"
      ],
      [
        "bu",
        "r"
      ],
      [
        "Ch",
        "cą"
      ],
      [
        "pu",
        "ść"
      ],
      [
        "ng",
        "le"
      ],
      [
        "koń",
        "ca"
      ],
      [
        "Wię",
        "cej"
      ],
      [
        "kró",
        "tce"
      ],
      [
        "rem",
        "ix"
      ],
      [
        "nagry",
        "wam"
      ],
      [
        "fak",
        "t"
      ],
      [
        "tele",
        "fon"
      ],
      [
        "sp",
        "len"
      ],
      [
        "Musi",
        "sz"
      ],
      [
        "dziup",
        "li"
      ],
      [
        "potrze",
        "b"
      ],
      [
        "alle",
        "luja"
      ],
      [
        "zne",
        "s"
      ],
      [
        "A",
        "l"
      ],
      [
        "S",
        "t"
      ],
      [
        "S",
        "tyl"
      ],
      [
        "b",
        "ó"
      ],
      [
        "f",
        "ski"
      ],
      [
        "h",
        "u"
      ],
      [
        "i",
        "de"
      ],
      [
        "o",
        "czach"
      ],
      [
        "w",
        "kur"
      ],
      [
        "z",
        "on"
      ],
      [
        "ń",
        "cu"
      ],
      [
        "la",
        "ch"
      ],
      [
        "ma",
        "cie"
      ],
      [
        "ma",
        "lnie"
      ],
      [
        "da",
        "sz"
      ],
      [
        "ku",
        "n"
      ],
      [
        "tak",
        "im"
      ],
      [
        "że",
        "ś"
      ],
      [
        "go",
        "ść"
      ],
      [
        "To",
        "bie"
      ],
      [
        "lo",
        "ka"
      ],
      [
        "pi",
        "ć"
      ],
      [
        "or",
        "ą"
      ],
      [
        "czas",
        "y"
      ],
      [
        "czas",
        "ie"
      ],
      [
        "czas",
        "ach"
      ],
      [
        "Za",
        "jebi"
      ],
      [
        "wó",
        "d"
      ],
      [
        "ha",
        "łas"
      ],
      [
        "war",
        "io"
      ],
      [
        "By",
        "łem"
      ],
      [
        "pó",
        "ź"
      ],
      [
        "gie",
        "m"
      ],
      [
        "ste",
        "ty"
      ],
      [
        "dru",
        "gie"
      ],
      [
        "tru",
        "dno"
      ],
      [
        "miejs",
        "ca"
      ],
      [
        "RR",
        "R"
      ],
      [
        "następ",
        "ny"
      ],
      [
        "jas",
        "ne"
      ],
      [
        "ciem",
        "no"
      ],
      [
        "splen",
        "dor"
      ],
      [
        "A",
        "m"
      ],
      [
        "A",
        "ha"
      ],
      [
        "F",
        "u"
      ],
      [
        "H",
        "alleluja"
      ],
      [
        "N",
        "ew"
      ],
      [
        "O",
        "oo"
      ],
      [
        "w",
        "pada"
      ],
      [
        "ż",
        "ą"
      ],
      [
        "cz",
        "tery"
      ],
      [
        "rz",
        "ą"
      ],
      [
        "ro",
        "bo"
      ],
      [
        "wa",
        "lę"
      ],
      [
        "la",
        "to"
      ],
      [
        "wi",
        "j"
      ],
      [
        "pa",
        "nie"
      ],
      [
        "ci",
        "sz"
      ],
      [
        "wy",
        "je"
      ],
      [
        "tu",
        "j"
      ],
      [
        "ce",
        "le"
      ],
      [
        "ce",
        "nt"
      ],
      [
        "czy",
        "my"
      ],
      [
        "re",
        "al"
      ],
      [
        "To",
        "czę"
      ],
      [
        "rzy",
        "ć"
      ],
      [
        "Je",
        "bać"
      ],
      [
        "ru",
        "sz"
      ],
      [
        "ru",
        "ch"
      ],
      [
        "in",
        "nym"
      ],
      [
        "robi",
        "łem"
      ],
      [
        "im",
        "pre"
      ],
      [
        "pro",
        "sto"
      ],
      [
        "przy",
        "szło"
      ],
      [
        "du",
        "pę"
      ],
      [
        "roz",
        "k"
      ],
      [
        "war",
        "sza"
      ],
      [
        "sły",
        "szysz"
      ],
      [
        "ob",
        "chodzi"
      ],
      [
        "ser",
        "io"
      ],
      [
        "lep",
        "szy"
      ],
      [
        "wiel",
        "bi"
      ],
      [
        "mili",
        "ony"
      ],
      [
        "pew",
        "nie"
      ],
      [
        "pio",
        "sen"
      ],
      [
        "spra",
        "wa"
      ],
      [
        "Dis",
        "sy"
      ],
      [
        "M",
        "I"
      ],
      [
        "N",
        "O"
      ],
      [
        "S",
        "po"
      ],
      [
        "g",
        "lo"
      ],
      [
        "h",
        "ard"
      ],
      [
        "q",
        "u"
      ],
      [
        "t",
        "ó"
      ],
      [
        "t",
        "ri"
      ],
      [
        "w",
        "ni"
      ],
      [
        "w",
        "ski"
      ],
      [
        "w",
        "cześ"
      ],
      [
        "z",
        "amy"
      ],
      [
        "z",
        "rób"
      ],
      [
        "cz",
        "uj"
      ],
      [
        "ty",
        "k"
      ],
      [
        "la",
        "s"
      ],
      [
        "wie",
        "r"
      ],
      [
        "za",
        "trzyma"
      ],
      [
        "pa",
        "s"
      ],
      [
        "wy",
        "pierdalaj"
      ],
      [
        "Ty",
        "p"
      ],
      [
        "sy",
        "n"
      ],
      [
        "roz",
        "po"
      ],
      [
        "tra",
        "ck"
      ],
      [
        "pierdo",
        "lone"
      ],
      [
        "jed",
        "ną"
      ],
      [
        "fu",
        "ry"
      ],
      [
        "peł",
        "en"
      ],
      [
        "Cho",
        "ciaż"
      ],
      [
        "gł",
        "ę"
      ],
      [
        "świe",
        "cie"
      ],
      [
        "rr",
        "rt"
      ],
      [
        "szans",
        "ę"
      ],
      [
        "dwu",
        "dzie"
      ],
      [
        "swa",
        "g"
      ],
      [
        "proble",
        "my"
      ],
      [
        "Dzię",
        "ki"
      ],
      [
        "Sup",
        "er"
      ],
      [
        "B",
        "ie"
      ],
      [
        "O",
        "V"
      ],
      [
        "O",
        "ni"
      ],
      [
        "P",
        "ó"
      ],
      [
        "P",
        "ły"
      ],
      [
        "S",
        "kurwysy"
      ],
      [
        "T",
        "ro"
      ],
      [
        "b",
        "łę"
      ],
      [
        "c",
        "razy"
      ],
      [
        "e",
        "ej"
      ],
      [
        "g",
        "no"
      ],
      [
        "m",
        "ą"
      ],
      [
        "t",
        "ren"
      ],
      [
        "u",
        "je"
      ],
      [
        "u",
        "czy"
      ],
      [
        "z",
        "nik"
      ],
      [
        "sz",
        "ła"
      ],
      [
        "st",
        "ki"
      ],
      [
        "st",
        "ałem"
      ],
      [
        "to",
        "p"
      ],
      [
        "ko",
        "rzy"
      ],
      [
        "ko",
        "ks"
      ],
      [
        "em",
        "i"
      ],
      [
        "wi",
        "dzą"
      ],
      [
        "da",
        "w"
      ],
      [
        "za",
        "sa"
      ],
      [
        "za",
        "nim"
      ],
      [
        "ci",
        "sk"
      ],
      [
        "co",
        "raz"
      ],
      [
        "wy",
        "starczy"
      ],
      [
        "dy",
        "skretny"
      ],
      [
        "de",
        "ka"
      ],
      [
        "pie",
        "ro"
      ],
      [
        "rzy",
        "sz"
      ],
      [
        "ga",
        "ng"
      ],
      [
        "Ja",
        "ca"
      ],
      [
        "gra",
        "my"
      ],
      [
        "du",
        "pa"
      ],
      [
        "bu",
        "s"
      ],
      [
        "sk",
        "rę"
      ],
      [
        "hi",
        "t"
      ],
      [
        "pły",
        "wa"
      ],
      [
        "każ",
        "de"
      ],
      [
        "pierdo",
        "lony"
      ],
      [
        "moje",
        "j"
      ],
      [
        "pow",
        "rót"
      ],
      [
        "szam",
        "pan"
      ],
      [
        "laj",
        "f"
      ],
      [
        "miło",
        "ści"
      ],
      [
        "ster",
        "dam"
      ],
      [
        "Two",
        "ja"
      ],
      [
        "gim",
        "b"
      ],
      [
[...]
